unsigned char modelo_int8_tflite[] = {
  0x1c, 0x00, 0x00, 0x00, 0x54, 0x46, 0x4c, 0x33, 0x14, 0x00, 0x20, 0x00,
  0x1c, 0x00, 0x18, 0x00, 0x14, 0x00, 0x10, 0x00, 0x0c, 0x00, 0x00, 0x00,
  0x08, 0x00, 0x04, 0x00, 0x14, 0x00, 0x00, 0x00, 0x1c, 0x00, 0x00, 0x00,
  0x88, 0x00, 0x00, 0x00, 0x08, 0x01, 0x00, 0x00, 0x74, 0x1a, 0x00, 0x00,
  0x84, 0x1a, 0x00, 0x00, 0xc0, 0x2b, 0x00, 0x00, 0x03, 0x00, 0x00, 0x00,
  0x01, 0x00, 0x00, 0x00, 0x04, 0x00, 0x00, 0x00, 0x2e, 0xe5, 0xff, 0xff,
  0x0c, 0x00, 0x00, 0x00, 0x1c, 0x00, 0x00, 0x00, 0x3c, 0x00, 0x00, 0x00,
  0x0f, 0x00, 0x00, 0x00, 0x73, 0x65, 0x72, 0x76, 0x69, 0x6e, 0x67, 0x5f,
  0x64, 0x65, 0x66, 0x61, 0x75, 0x6c, 0x74, 0x00, 0x01, 0x00, 0x00, 0x00,
  0x04, 0x00, 0x00, 0x00, 0x6c, 0xff, 0xff, 0xff, 0x11, 0x00, 0x00, 0x00,
  0x04, 0x00, 0x00, 0x00, 0x08, 0x00, 0x00, 0x00, 0x6f, 0x75, 0x74, 0x70,
  0x75, 0x74, 0x5f, 0x30, 0x00, 0x00, 0x00, 0x00, 0x01, 0x00, 0x00, 0x00,
  0x04, 0x00, 0x00, 0x00, 0x16, 0xe6, 0xff, 0xff, 0x04, 0x00, 0x00, 0x00,
  0x0b, 0x00, 0x00, 0x00, 0x69, 0x6e, 0x70, 0x75, 0x74, 0x5f, 0x6c, 0x61,
  0x79, 0x65, 0x72, 0x00, 0x03, 0x00, 0x00, 0x00, 0x5c, 0x00, 0x00, 0x00,
  0x2c, 0x00, 0x00, 0x00, 0x04, 0x00, 0x00, 0x00, 0xb8, 0xff, 0xff, 0xff,
  0x15, 0x00, 0x00, 0x00, 0x04, 0x00, 0x00, 0x00, 0x13, 0x00, 0x00, 0x00,
  0x43, 0x4f, 0x4e, 0x56, 0x45, 0x52, 0x53, 0x49, 0x4f, 0x4e, 0x5f, 0x4d,
  0x45, 0x54, 0x41, 0x44, 0x41, 0x54, 0x41, 0x00, 0xdc, 0xff, 0xff, 0xff,
  0x14, 0x00, 0x00, 0x00, 0x04, 0x00, 0x00, 0x00, 0x13, 0x00, 0x00, 0x00,
  0x6d, 0x69, 0x6e, 0x5f, 0x72, 0x75, 0x6e, 0x74, 0x69, 0x6d, 0x65, 0x5f,
  0x76, 0x65, 0x72, 0x73, 0x69, 0x6f, 0x6e, 0x00, 0x08, 0x00, 0x0c, 0x00,
  0x08, 0x00, 0x04, 0x00, 0x08, 0x00, 0x00, 0x00, 0x13, 0x00, 0x00, 0x00,
  0x04, 0x00, 0x00, 0x00, 0x13, 0x00, 0x00, 0x00, 0x6d, 0x69, 0x6e, 0x5f,
  0x72, 0x75, 0x6e, 0x74, 0x69, 0x6d, 0x65, 0x5f, 0x76, 0x65, 0x72, 0x73,
  0x69, 0x6f, 0x6e, 0x00, 0x16, 0x00, 0x00, 0x00, 0x68, 0x19, 0x00, 0x00,
  0x60, 0x19, 0x00, 0x00, 0x48, 0x19, 0x00, 0x00, 0x2c, 0x19, 0x00, 0x00,
  0xfc, 0x18, 0x00, 0x00, 0x6c, 0x18, 0x00, 0x00, 0x5c, 0x06, 0x00, 0x00,
  0x0c, 0x06, 0x00, 0x00, 0x7c, 0x01, 0x00, 0x00, 0x4c, 0x01, 0x00, 0x00,
  0xf4, 0x00, 0x00, 0x00, 0xec, 0x00, 0x00, 0x00, 0xe4, 0x00, 0x00, 0x00,
  0xdc, 0x00, 0x00, 0x00, 0xd4, 0x00, 0x00, 0x00, 0xcc, 0x00, 0x00, 0x00,
  0xc4, 0x00, 0x00, 0x00, 0xbc, 0x00, 0x00, 0x00, 0xb4, 0x00, 0x00, 0x00,
  0x94, 0x00, 0x00, 0x00, 0x74, 0x00, 0x00, 0x00, 0x04, 0x00, 0x00, 0x00,
  0x0e, 0xe7, 0xff, 0xff, 0x04, 0x00, 0x00, 0x00, 0x60, 0x00, 0x00, 0x00,
  0x0c, 0x00, 0x00, 0x00, 0x08, 0x00, 0x0e, 0x00, 0x08, 0x00, 0x04, 0x00,
  0x08, 0x00, 0x00, 0x00, 0x10, 0x00, 0x00, 0x00, 0x28, 0x00, 0x00, 0x00,
  0x00, 0x00, 0x06, 0x00, 0x08, 0x00, 0x04, 0x00, 0x06, 0x00, 0x00, 0x00,
  0x04, 0x00, 0x00, 0x00, 0x01, 0x00, 0x00, 0x00, 0xeb, 0x03, 0x00, 0x00,
  0x0c, 0x00, 0x18, 0x00, 0x14, 0x00, 0x10, 0x00, 0x0c, 0x00, 0x04, 0x00,
  0x0c, 0x00, 0x00, 0x00, 0xa5, 0x23, 0x9b, 0x65, 0xa4, 0x8c, 0x44, 0x01,
  0x02, 0x00, 0x00, 0x00, 0x02, 0x00, 0x00, 0x00, 0x04, 0x00, 0x00, 0x00,
  0x06, 0x00, 0x00, 0x00, 0x32, 0x2e, 0x31, 0x38, 0x2e, 0x30, 0x00, 0x00,
  0x7a, 0xe7, 0xff, 0xff, 0x04, 0x00, 0x00, 0x00, 0x10, 0x00, 0x00, 0x00,
  0x00, 0x00, 0x00, 0x00, 0x00, 0x00, 0x00, 0x00, 0x00, 0x00, 0x00, 0x00,
  0x00, 0x00, 0x00, 0x00, 0x96, 0xe7, 0xff, 0xff, 0x04, 0x00, 0x00, 0x00,
  0x10, 0x00, 0x00, 0x00, 0x31, 0x2e, 0x31, 0x34, 0x2e, 0x30, 0x00, 0x00,
  0x00, 0x00, 0x00, 0x00, 0x00, 0x00, 0x00, 0x00, 0x14, 0xd7, 0xff, 0xff,
  0x18, 0xd7, 0xff, 0xff, 0x1c, 0xd7, 0xff, 0xff, 0x20, 0xd7, 0xff, 0xff,
  0x24, 0xd7, 0xff, 0xff, 0x28, 0xd7, 0xff, 0xff, 0x2c, 0xd7, 0xff, 0xff,
  0x30, 0xd7, 0xff, 0xff, 0xd2, 0xe7, 0xff, 0xff, 0x04, 0x00, 0x00, 0x00,
  0x48, 0x00, 0x00, 0x00, 0x46, 0xd2, 0x77, 0xe2, 0xba, 0xb9, 0xde, 0x08,
  0x7f, 0xb6, 0x5e, 0xed, 0x39, 0xbd, 0x13, 0x30, 0x7f, 0xea, 0x65, 0x50,
  0x64, 0x02, 0x7f, 0xfc, 0x2d, 0x4f, 0xa3, 0x7f, 0x71, 0xf5, 0x93, 0x5b,
  0xa9, 0x9b, 0x21, 0x5b, 0xe4, 0x36, 0x1f, 0xf4, 0x66, 0x7f, 0x4b, 0xdf,
  0xc6, 0xf2, 0x9b, 0xd5, 0x7f, 0x63, 0x14, 0x45, 0x09, 0x24, 0x5c, 0x49,
  0x81, 0x53, 0x6a, 0x65, 0xbe, 0xdf, 0xf4, 0xb6, 0x27, 0x7f, 0xa0, 0x52,
  0xa9, 0x5e, 0xf7, 0x64, 0x26, 0xe8, 0xff, 0xff, 0x04, 0x00, 0x00, 0x00,
  0x20, 0x00, 0x00, 0x00, 0x56, 0xf2, 0xff, 0xff, 0xa8, 0xe6, 0xff, 0xff,
  0x1c, 0xe0, 0xff, 0xff, 0xb9, 0xde, 0xff, 0xff, 0xc2, 0xdd, 0xff, 0xff,
  0xb8, 0xe2, 0xff, 0xff, 0xf2, 0xd3, 0xff, 0xff, 0x10, 0xe1, 0xff, 0xff,
  0x52, 0xe8, 0xff, 0xff, 0x04, 0x00, 0x00, 0x00, 0x80, 0x04, 0x00, 0x00,
  0xfe, 0x1a, 0x06, 0x3c, 0xf3, 0xec, 0x44, 0xff, 0x3c, 0xd1, 0x2c, 0x4c,
  0x0d, 0x2e, 0x54, 0xec, 0x39, 0x0c, 0x1d, 0x4d, 0x32, 0x21, 0x28, 0x3a,
  0xfa, 0xf6, 0x13, 0x46, 0x13, 0xf6, 0x46, 0xf8, 0x22, 0x4f, 0xec, 0x31,
  0xcf, 0x38, 0xd9, 0x2b, 0x10, 0xeb, 0x32, 0x3f, 0x3e, 0x4e, 0xe9, 0x2e,
  0x74, 0x2a, 0x1a, 0xe2, 0x05, 0x48, 0x20, 0x43, 0x78, 0x16, 0xeb, 0x06,
  0xf3, 0x0b, 0x0c, 0x00, 0x18, 0x62, 0x3c, 0x4b, 0xee, 0x4d, 0xe9, 0x7f,
  0x56, 0x44, 0x3b, 0xf5, 0xd7, 0x5a, 0x42, 0x14, 0xf9, 0xea, 0xf8, 0xff,
  0x0e, 0xf0, 0x2b, 0x04, 0x6f, 0x3b, 0x2f, 0x3e, 0x13, 0x39, 0x4e, 0x5d,
  0x0a, 0xe3, 0x02, 0x1b, 0x10, 0x3c, 0x0e, 0x15, 0x45, 0x12, 0xef, 0xf6,
  0x16, 0x34, 0x3d, 0x29, 0x38, 0x54, 0x33, 0x0f, 0x3d, 0x4e, 0x33, 0x4b,
  0x7f, 0x0e, 0xf7, 0x4a, 0x09, 0x43, 0x42, 0x0f, 0x2e, 0x23, 0xe1, 0x21,
  0xec, 0x3f, 0xfe, 0x49, 0x3a, 0x54, 0x46, 0x56, 0x48, 0x1f, 0x1b, 0x2d,
  0x03, 0x34, 0x37, 0x54, 0x25, 0x07, 0xf3, 0x6d, 0x69, 0xee, 0xc7, 0x56,
  0xe6, 0xf8, 0x2a, 0xe8, 0x3b, 0x14, 0xba, 0xce, 0xf2, 0xf2, 0xe3, 0xec,
  0x45, 0xf1, 0x00, 0x54, 0x2b, 0x2c, 0x49, 0x60, 0x73, 0x4d, 0x47, 0x10,
  0xea, 0xf1, 0x0d, 0x2c, 0x54, 0xf5, 0xfd, 0x20, 0x09, 0x65, 0x2d, 0x4e,
  0x1a, 0x7f, 0xda, 0x07, 0x39, 0x4d, 0x00, 0x5c, 0x1a, 0xf7, 0x3b, 0x40,
  0x58, 0x52, 0x58, 0x3e, 0x37, 0x29, 0x36, 0x4a, 0x55, 0x17, 0x3e, 0x0f,
  0x49, 0x4d, 0x29, 0x0a, 0xf0, 0x24, 0x27, 0x02, 0xfa, 0x2c, 0x29, 0xfc,
  0xd6, 0xff, 0x1a, 0xf3, 0x66, 0xda, 0xf3, 0x2e, 0xe3, 0x15, 0xe1, 0x52,
  0x5d, 0x0b, 0xe5, 0xef, 0x33, 0x0e, 0x2a, 0x1e, 0x5d, 0x0b, 0xed, 0x44,
  0xd5, 0x0c, 0x33, 0xf6, 0x25, 0x54, 0x2b, 0xf9, 0x13, 0x60, 0xfb, 0x47,
  0x26, 0x48, 0x27, 0xe5, 0x22, 0x5f, 0x54, 0x3b, 0x7f, 0x5e, 0xf1, 0x1e,
  0x29, 0x6f, 0x09, 0x76, 0x37, 0x29, 0x51, 0x04, 0x0f, 0x65, 0x30, 0x5e,
  0x13, 0xeb, 0xd2, 0xdf, 0xdd, 0xe9, 0xff, 0x2c, 0x55, 0xe4, 0x14, 0x49,
  0xf9, 0xf5, 0x29, 0x4d, 0x2b, 0xe0, 0x16, 0x4b, 0x01, 0x4f, 0x18, 0x4e,
  0x37, 0x24, 0x0a, 0x45, 0x38, 0x0e, 0x48, 0x60, 0x3d, 0x4d, 0xfb, 0x09,
  0x1d, 0x2a, 0xe0, 0x42, 0x6b, 0x1e, 0x05, 0x37, 0x00, 0x3d, 0x23, 0x1f,
  0x7f, 0x29, 0x42, 0x33, 0x0c, 0x6d, 0x2e, 0x2d, 0x76, 0x0a, 0xea, 0x19,
  0x38, 0x6a, 0x49, 0x26, 0x2e, 0xfe, 0x12, 0x2d, 0x32, 0x42, 0xfa, 0x6e,
  0x2a, 0xfa, 0x4c, 0x4a, 0x45, 0xfa, 0x48, 0xfb, 0x78, 0x44, 0x03, 0x2a,
  0x49, 0x44, 0x58, 0x55, 0xf9, 0x55, 0x1e, 0x38, 0xdc, 0xea, 0x2c, 0x51,
  0x38, 0x60, 0x45, 0x16, 0x36, 0x22, 0x4b, 0xfb, 0x7f, 0x01, 0x2a, 0x49,
  0xf2, 0xf7, 0x59, 0x68, 0x73, 0x27, 0x34, 0xe7, 0x25, 0x08, 0xf7, 0x41,
  0x49, 0x51, 0xd9, 0x45, 0x26, 0x68, 0x3e, 0x1d, 0x1b, 0xeb, 0x2a, 0xef,
  0xe1, 0x17, 0x47, 0x73, 0x11, 0x69, 0xe7, 0x5c, 0x3f, 0x15, 0x06, 0x24,
  0x19, 0x01, 0x3b, 0xf6, 0x3b, 0x46, 0x17, 0x03, 0x28, 0x37, 0x24, 0x40,
  0xd2, 0x14, 0xf0, 0x1f, 0x38, 0x37, 0x14, 0x44, 0xe8, 0x25, 0x3c, 0x33,
  0x42, 0x07, 0xd6, 0x35, 0x2f, 0xf3, 0x24, 0x1e, 0x2d, 0x3b, 0xd5, 0xe1,
  0x2e, 0x2b, 0xf9, 0x19, 0x3f, 0x3e, 0xe1, 0x2b, 0x10, 0x5c, 0x1b, 0xfa,
  0x18, 0x1d, 0x3c, 0xe6, 0x2e, 0x66, 0x0c, 0x6d, 0x42, 0x05, 0x48, 0x10,
  0xe4, 0x7f, 0x56, 0x30, 0x1f, 0x63, 0x05, 0x1f, 0xe3, 0x3c, 0x0e, 0x59,
  0x5e, 0x0e, 0x04, 0x13, 0x4a, 0x37, 0x61, 0x53, 0x5b, 0xec, 0xfd, 0x47,
  0x03, 0x42, 0x16, 0x6a, 0x75, 0xfc, 0x06, 0x0f, 0x59, 0x48, 0x54, 0x76,
  0x71, 0x22, 0x0a, 0x41, 0x1c, 0x0f, 0x37, 0x4c, 0x7f, 0x49, 0xfe, 0x0b,
  0x0e, 0x15, 0x3f, 0x06, 0x38, 0x0a, 0x20, 0x01, 0xfd, 0x13, 0xe7, 0x47,
  0x76, 0xee, 0xcf, 0x2c, 0x4c, 0x1d, 0xe1, 0x49, 0x19, 0x10, 0xe5, 0x4c,
  0x13, 0x23, 0x58, 0x1a, 0x57, 0x02, 0xd3, 0xec, 0x22, 0x3f, 0x27, 0x14,
  0x59, 0x3a, 0xd2, 0x18, 0x42, 0xe7, 0xdb, 0xf5, 0x31, 0x32, 0xe1, 0xf2,
  0x42, 0xfd, 0xd8, 0x32, 0x47, 0x04, 0xf8, 0x24, 0xf1, 0x06, 0x0f, 0x4c,
  0x13, 0xf9, 0xea, 0x05, 0x47, 0x44, 0x24, 0x25, 0x07, 0x42, 0x27, 0x40,
  0x44, 0x4c, 0x0d, 0x05, 0x1b, 0x32, 0x28, 0x3b, 0x0e, 0x3e, 0x32, 0x37,
  0x1c, 0x32, 0x3e, 0x44, 0x4a, 0x78, 0x52, 0x37, 0x59, 0x76, 0x16, 0x17,
  0x45, 0x2c, 0x00, 0x45, 0x49, 0x23, 0x01, 0x48, 0xf0, 0x7f, 0x0a, 0x30,
  0x23, 0x13, 0xed, 0x37, 0xe4, 0xea, 0x34, 0x3a, 0x07, 0xd6, 0x39, 0xe4,
  0x0b, 0x11, 0xde, 0x4d, 0x66, 0x3e, 0xfc, 0xf8, 0xe2, 0xeb, 0xff, 0xef,
  0x71, 0x19, 0x21, 0xf8, 0x01, 0x6a, 0x07, 0x50, 0x09, 0xf4, 0xd8, 0xd9,
  0x11, 0x2b, 0x0f, 0xf8, 0x34, 0x48, 0x2a, 0x47, 0xeb, 0x44, 0x0a, 0x0a,
  0x64, 0x0d, 0x0e, 0x14, 0x0f, 0x24, 0xf0, 0x7f, 0x1b, 0x66, 0x4c, 0x48,
  0x12, 0x5b, 0x36, 0x15, 0x47, 0xff, 0x26, 0xe3, 0x2b, 0x1e, 0x4e, 0x3c,
  0x2d, 0xde, 0x10, 0x1a, 0xef, 0x6b, 0x65, 0x1c, 0x1a, 0x2f, 0x38, 0x63,
  0x28, 0x23, 0x54, 0xe9, 0x06, 0xc6, 0x23, 0xd1, 0x51, 0x0a, 0xe5, 0xeb,
  0x7e, 0x34, 0x36, 0x14, 0x5b, 0x7f, 0x20, 0x03, 0x67, 0x47, 0x2b, 0x26,
  0x14, 0x0f, 0xd2, 0x60, 0x52, 0x4e, 0x39, 0x4f, 0x0c, 0x5d, 0xd0, 0x3a,
  0x23, 0x07, 0xdc, 0xfb, 0xf6, 0x56, 0x53, 0x39, 0x6c, 0x14, 0x1e, 0xd5,
  0x3a, 0x55, 0x76, 0x19, 0x45, 0x67, 0x59, 0x1b, 0x12, 0x71, 0x11, 0x66,
  0x5c, 0x46, 0x39, 0x32, 0x3c, 0xf2, 0x53, 0x69, 0x4b, 0x5a, 0xec, 0xeb,
  0x0d, 0x22, 0x16, 0x23, 0x47, 0x44, 0x38, 0x07, 0x1c, 0x30, 0xfd, 0x59,
  0x5a, 0xe1, 0x35, 0xfa, 0x02, 0x03, 0xd7, 0x18, 0x51, 0xee, 0x35, 0x41,
  0xcc, 0x3f, 0x1b, 0x1c, 0x0c, 0x28, 0x47, 0x57, 0x47, 0x03, 0xd9, 0x5e,
  0x1f, 0x44, 0x0e, 0x53, 0xe2, 0x76, 0x0d, 0x75, 0x04, 0x44, 0xe6, 0x2f,
  0x00, 0x37, 0x2c, 0x66, 0x7f, 0x05, 0x20, 0x48, 0x3e, 0x47, 0xdc, 0x26,
  0x3d, 0xd4, 0xd8, 0xd9, 0xc6, 0x47, 0xe6, 0xd9, 0xdd, 0x28, 0xf3, 0x06,
  0xf0, 0x0d, 0xe4, 0x2c, 0x5a, 0xe6, 0xfe, 0xdf, 0xcd, 0xfd, 0xe5, 0x0b,
  0x54, 0x0d, 0x28, 0x48, 0x18, 0x3e, 0x0e, 0x3d, 0x1b, 0xeb, 0x38, 0x3d,
  0x27, 0x3d, 0xdb, 0x2e, 0x04, 0x1b, 0xea, 0xe4, 0x31, 0x41, 0x05, 0x00,
  0x7d, 0x0f, 0x41, 0xe0, 0x0d, 0x3b, 0x5a, 0x71, 0x5c, 0x2b, 0x1e, 0xe3,
  0x13, 0x45, 0x42, 0x3f, 0x3b, 0x28, 0xf9, 0x36, 0x40, 0x7f, 0x1e, 0x35,
  0x77, 0xc9, 0x55, 0xdf, 0xe2, 0x11, 0x1f, 0x52, 0xf7, 0xeb, 0x55, 0x5d,
  0x30, 0xd8, 0x18, 0x4a, 0x70, 0x1a, 0x2d, 0xe2, 0x44, 0x2d, 0x51, 0x6a,
  0x1d, 0x4a, 0x10, 0xcd, 0x08, 0x47, 0x4e, 0x10, 0x30, 0xeb, 0x44, 0xf2,
  0xf8, 0x70, 0x0e, 0x6b, 0x46, 0x64, 0x40, 0x14, 0x09, 0x5a, 0xe1, 0xf3,
  0x4f, 0x77, 0xc7, 0x0b, 0x3a, 0x7f, 0x54, 0x4b, 0x20, 0x51, 0xe0, 0x4e,
  0xec, 0x1c, 0x27, 0x48, 0x6c, 0x5b, 0xdd, 0x4e, 0x65, 0x60, 0x3c, 0x5b,
  0x27, 0x1c, 0xd8, 0xe3, 0xff, 0x23, 0x3c, 0x3e, 0x05, 0x02, 0x34, 0x3e,
  0xcc, 0x07, 0xd8, 0x21, 0x3a, 0x41, 0xed, 0x36, 0xf1, 0xec, 0x37, 0xf2,
  0x10, 0x3c, 0xf5, 0x35, 0xf5, 0x21, 0x05, 0x50, 0x4e, 0x45, 0xe0, 0x27,
  0x20, 0x67, 0x09, 0x24, 0x21, 0x5c, 0x07, 0x38, 0xf9, 0x39, 0x49, 0x51,
  0x71, 0x37, 0x1e, 0x12, 0x0a, 0x39, 0x07, 0x67, 0x12, 0x4b, 0x31, 0x1d,
  0x27, 0x7f, 0x3a, 0x5c, 0x69, 0x11, 0x14, 0x11, 0x1c, 0x4a, 0x47, 0x63,
  0x16, 0x07, 0x27, 0x08, 0xfe, 0xf1, 0xf5, 0x27, 0x05, 0x0b, 0x1d, 0x35,
  0x2f, 0xf4, 0x03, 0x0c, 0x60, 0x18, 0xf9, 0x43, 0x2d, 0x38, 0xdf, 0xf4,
  0x12, 0x37, 0xda, 0xe4, 0x1b, 0xfd, 0x46, 0xfe, 0x00, 0x46, 0xed, 0xfc,
  0x0e, 0x50, 0x1a, 0x1a, 0x68, 0x29, 0xfd, 0x16, 0x39, 0x55, 0x35, 0x4b,
  0x7f, 0x0d, 0x2f, 0x4a, 0x34, 0x4c, 0x17, 0x6b, 0x58, 0x64, 0x05, 0x3e,
  0xe8, 0x3b, 0x11, 0x0c, 0x59, 0x1d, 0x42, 0x33, 0x39, 0x3c, 0xec, 0x29,
  0xde, 0xec, 0xff, 0xff, 0x04, 0x00, 0x00, 0x00, 0x40, 0x00, 0x00, 0x00,
  0x3b, 0xe0, 0xff, 0xff, 0x01, 0xe3, 0xff, 0xff, 0xa1, 0xe1, 0xff, 0xff,
  0x3a, 0xe7, 0xff, 0xff, 0xf1, 0xe6, 0xff, 0xff, 0x2a, 0xd8, 0xff, 0xff,
  0x0f, 0xe7, 0xff, 0xff, 0xd1, 0xe6, 0xff, 0xff, 0x79, 0xe8, 0xff, 0xff,
  0xbd, 0xe9, 0xff, 0xff, 0xf5, 0xd7, 0xff, 0xff, 0xa4, 0xde, 0xff, 0xff,
  0x42, 0xeb, 0xff, 0xff, 0x0b, 0xd6, 0xff, 0xff, 0x62, 0xf4, 0xff, 0xff,
  0x27, 0xe9, 0xff, 0xff, 0x2a, 0xed, 0xff, 0xff, 0x04, 0x00, 0x00, 0x00,
  0x00, 0x12, 0x00, 0x00, 0xc2, 0x03, 0xd4, 0xa5, 0xed, 0xe4, 0xbb, 0xd1,
  0x98, 0xf8, 0xec, 0xe4, 0x49, 0xe4, 0x46, 0xb2, 0x06, 0x1b, 0x3e, 0xb4,
  0xa8, 0xf9, 0x1d, 0xe7, 0x0b, 0x2b, 0xfe, 0x05, 0x2f, 0x45, 0xb3, 0x2e,
  0xac, 0x25, 0xc2, 0xf0, 0x9e, 0x42, 0xb9, 0xbe, 0x2b, 0x3a, 0x28, 0x19,
  0x1d, 0x43, 0x10, 0x81, 0xe7, 0xb3, 0x08, 0x41, 0x09, 0xea, 0xc9, 0x2a,
  0xdf, 0xe7, 0x91, 0x11, 0x42, 0x9a, 0xc5, 0x40, 0x3e, 0xe0, 0xcd, 0x23,
  0x16, 0x0e, 0x27, 0xab, 0x9c, 0x23, 0x26, 0xd5, 0x48, 0x23, 0x49, 0x01,
  0xfc, 0x2f, 0xea, 0x30, 0xc5, 0xc6, 0xfa, 0x20, 0xe3, 0x21, 0x16, 0x94,
  0xda, 0x0c, 0xc5, 0xc0, 0xef, 0x51, 0xbc, 0xe4, 0xf8, 0xd2, 0x2d, 0xf0,
  0x29, 0xdf, 0xdd, 0xad, 0x42, 0xf4, 0x4e, 0xd0, 0x42, 0x13, 0x03, 0x0f,
  0x3a, 0x01, 0x3d, 0x49, 0xab, 0x11, 0x2c, 0xd4, 0x58, 0x03, 0xbd, 0x96,
  0xf1, 0xac, 0xd2, 0x34, 0x3c, 0x4d, 0xd3, 0xbc, 0x9d, 0xc1, 0xe0, 0xc7,
  0x17, 0x25, 0x17, 0x4d, 0x57, 0x32, 0xe4, 0x43, 0x32, 0x27, 0x5d, 0x53,
  0xfe, 0xec, 0xe7, 0x12, 0xfc, 0x18, 0x30, 0x1b, 0x2e, 0x1c, 0x3f, 0x2b,
  0x3c, 0x19, 0x16, 0x73, 0xe9, 0x3e, 0x46, 0x2c, 0x36, 0xff, 0x36, 0xfe,
  0x36, 0x33, 0x50, 0x16, 0xec, 0x3f, 0x1b, 0x19, 0x37, 0x61, 0x2b, 0x0a,
  0x08, 0x5c, 0xf1, 0x36, 0x1c, 0xcc, 0xf7, 0xe7, 0xfd, 0xe8, 0x0d, 0x72,
  0xfb, 0x34, 0x1b, 0x27, 0x46, 0x4b, 0x28, 0x38, 0xf5, 0x45, 0x4e, 0x3f,
  0x20, 0x28, 0x4d, 0x5d, 0x16, 0xda, 0xdf, 0x07, 0x2a, 0xe5, 0xe7, 0x01,
  0x03, 0xdc, 0xef, 0x25, 0x17, 0x34, 0x34, 0x3a, 0x03, 0xdd, 0xdf, 0x16,
  0x48, 0x3b, 0x09, 0x14, 0x0e, 0x48, 0x54, 0x18, 0x3d, 0x56, 0x40, 0x3a,
  0x3d, 0x53, 0xfb, 0x12, 0x65, 0x4a, 0x4c, 0x25, 0xfe, 0x48, 0x09, 0x6a,
  0x25, 0xe8, 0x34, 0x45, 0x65, 0x14, 0x24, 0xec, 0x4e, 0x4b, 0x6b, 0x33,
  0x11, 0xfe, 0x30, 0x7f, 0x56, 0xea, 0x47, 0x2d, 0x5d, 0x50, 0x24, 0xef,
  0x65, 0xfe, 0x67, 0x20, 0x39, 0x3a, 0x4c, 0x05, 0x19, 0xed, 0x3b, 0x2d,
  0x2c, 0xfa, 0xf3, 0x34, 0x2c, 0xfd, 0x29, 0x3f, 0x02, 0x1e, 0x3e, 0xea,
  0xf0, 0x2e, 0x37, 0x24, 0x3f, 0x3f, 0x06, 0x23, 0xde, 0x09, 0xf4, 0x1f,
  0x2c, 0x31, 0x41, 0x1e, 0xf8, 0x43, 0xf8, 0x7d, 0x19, 0x19, 0x3f, 0x50,
  0x2b, 0x3e, 0x11, 0x4b, 0x43, 0xe5, 0x3b, 0x39, 0x21, 0xe7, 0xfd, 0x3c,
  0x08, 0xd5, 0x17, 0x09, 0xda, 0xf2, 0x38, 0x02, 0xe2, 0xf5, 0xfa, 0x2a,
  0x0b, 0x15, 0xda, 0x32, 0xe2, 0x10, 0xf2, 0x23, 0xed, 0x22, 0xdf, 0xdd,
  0x04, 0x15, 0x16, 0x34, 0xdc, 0xea, 0x1c, 0x4e, 0x3c, 0x22, 0x17, 0x41,
  0x36, 0x34, 0x08, 0x42, 0x14, 0x04, 0x2d, 0x64, 0x33, 0x4c, 0x37, 0x12,
  0x5b, 0x42, 0xef, 0xec, 0x7e, 0x0b, 0x7f, 0xfc, 0x18, 0x57, 0x45, 0x16,
  0x48, 0x38, 0x1a, 0x0e, 0x58, 0x5d, 0x47, 0x50, 0x20, 0xef, 0x46, 0x53,
  0x2c, 0x34, 0x69, 0x6e, 0x10, 0x34, 0x3c, 0x08, 0x3a, 0x11, 0x0b, 0xfb,
  0x15, 0xf5, 0x72, 0xff, 0xb8, 0x43, 0xc9, 0x61, 0x76, 0x37, 0xd3, 0x65,
  0xc4, 0x49, 0xbb, 0x82, 0xd2, 0x97, 0x0b, 0xba, 0xfe, 0x96, 0xdd, 0x0b,
  0x62, 0x81, 0x64, 0x77, 0xa9, 0x4a, 0x1c, 0x6b, 0xe0, 0x99, 0x50, 0x9b,
  0xf1, 0xac, 0x81, 0x08, 0xa0, 0xbb, 0xe1, 0x11, 0x02, 0xe5, 0xca, 0x95,
  0xee, 0x4d, 0x67, 0x6c, 0x9a, 0x83, 0x12, 0xf0, 0xa3, 0xcb, 0xd6, 0x7d,
  0x4d, 0xae, 0xf4, 0xe8, 0x5a, 0x08, 0x34, 0x38, 0x1b, 0x8b, 0x34, 0x8b,
  0xe3, 0x8e, 0x52, 0xd8, 0xef, 0x3c, 0xb3, 0x21, 0x72, 0xd3, 0x06, 0x36,
  0xa0, 0xe9, 0xaf, 0xb3, 0x2c, 0x66, 0x4a, 0x2b, 0x12, 0x18, 0x98, 0x17,
  0x94, 0xa5, 0x52, 0x2c, 0x55, 0xbe, 0xcf, 0x23, 0xaf, 0x54, 0x99, 0x8d,
  0xa6, 0x8d, 0x59, 0xf6, 0x50, 0xd3, 0xca, 0x31, 0x98, 0x15, 0xc8, 0x32,
  0x0c, 0x35, 0x2b, 0x2d, 0xe7, 0x1f, 0xb2, 0xa2, 0xe5, 0x63, 0xe8, 0x0b,
  0x55, 0x00, 0xa9, 0xf1, 0xe9, 0x4c, 0x3a, 0xde, 0x17, 0x64, 0x26, 0xb0,
  0x36, 0x33, 0x95, 0x9f, 0xf7, 0xc1, 0x3a, 0xe4, 0xf5, 0xe6, 0xd4, 0xf2,
  0xda, 0xd1, 0xd8, 0xd3, 0xde, 0x37, 0x2e, 0x28, 0xde, 0xbe, 0x3e, 0xb9,
  0x00, 0xbe, 0xbc, 0x89, 0x2b, 0x3b, 0x3c, 0xf8, 0xf2, 0xba, 0x23, 0xe4,
  0x01, 0xc2, 0xe8, 0xca, 0x19, 0x21, 0x1d, 0x81, 0x15, 0x2f, 0x15, 0xd7,
  0x33, 0xaa, 0xb6, 0xb2, 0xe7, 0x3b, 0x5a, 0x0e, 0x20, 0x3d, 0x3c, 0x9f,
  0xf8, 0xfc, 0x2a, 0x02, 0xfa, 0xfe, 0x50, 0xef, 0x14, 0x59, 0x16, 0x17,
  0x15, 0xdc, 0x49, 0xe9, 0xf1, 0x3c, 0x0c, 0x3f, 0x1a, 0x20, 0x1a, 0x28,
  0xe5, 0x09, 0xfd, 0x11, 0x16, 0xf3, 0x4c, 0xed, 0xfa, 0xff, 0x14, 0x20,
  0xef, 0xf0, 0xe0, 0xd9, 0xd1, 0xc0, 0xd5, 0xb0, 0xba, 0x09, 0xc9, 0xdc,
  0x1a, 0xe0, 0x1b, 0xe6, 0xd2, 0xfe, 0xd3, 0x0e, 0x24, 0x2d, 0x07, 0x9c,
  0x04, 0x11, 0xd6, 0x31, 0xba, 0x19, 0xcf, 0x23, 0x12, 0x36, 0xed, 0xe7,
  0xc7, 0xd5, 0xb0, 0xbb, 0xa7, 0x10, 0xb9, 0xe6, 0xb7, 0x11, 0x17, 0x32,
  0xe4, 0x0f, 0xdd, 0xe4, 0x51, 0x59, 0x28, 0xed, 0x2f, 0xf2, 0x1d, 0x21,
  0xe4, 0xf8, 0x14, 0x30, 0xde, 0x27, 0x2f, 0x12, 0xf2, 0x54, 0x18, 0xfc,
  0x49, 0xe9, 0x2b, 0x7c, 0x18, 0x58, 0x4e, 0x3b, 0xdf, 0xf0, 0x03, 0xec,
  0xfc, 0xf4, 0x34, 0x5b, 0xf6, 0x2a, 0x2c, 0x24, 0x40, 0xeb, 0xf8, 0x1a,
  0x01, 0x4c, 0x3c, 0x30, 0x40, 0x33, 0x17, 0x0b, 0xff, 0x0e, 0x47, 0x53,
  0x42, 0x1a, 0x39, 0xdc, 0x1f, 0x1b, 0xec, 0xf1, 0x2e, 0x30, 0xf2, 0x28,
  0x33, 0x3e, 0x2b, 0x59, 0xf9, 0xf0, 0x34, 0x14, 0x13, 0xee, 0xcc, 0xf4,
  0xf2, 0x4b, 0x12, 0x08, 0x2b, 0x02, 0x2a, 0x3c, 0xdb, 0xf5, 0xe5, 0x25,
  0xde, 0x06, 0x14, 0xe8, 0x29, 0x60, 0x08, 0x60, 0x73, 0x18, 0x35, 0x1f,
  0x36, 0x7c, 0x60, 0x2f, 0x6e, 0x1f, 0x30, 0x5b, 0x23, 0x0b, 0x00, 0x7f,
  0x17, 0xfe, 0x52, 0x2a, 0x1c, 0x3a, 0x56, 0x57, 0x4f, 0x4b, 0x39, 0x4f,
  0x04, 0xec, 0x0a, 0x62, 0x17, 0x31, 0x65, 0x20, 0x6c, 0x2d, 0x31, 0x41,
  0x5e, 0x30, 0x46, 0x55, 0xfe, 0x11, 0xeb, 0x39, 0xfb, 0x31, 0x1a, 0x1d,
  0xeb, 0xff, 0x19, 0x56, 0x35, 0xf6, 0xfd, 0x40, 0x30, 0x2f, 0x4c, 0x43,
  0x01, 0xf6, 0x40, 0x7f, 0x28, 0x47, 0x13, 0x54, 0x48, 0x5a, 0x30, 0x43,
  0xf8, 0x1c, 0x37, 0x20, 0xff, 0x43, 0x36, 0x73, 0xe4, 0xf0, 0x30, 0x2f,
  0x16, 0xf3, 0x08, 0x49, 0x10, 0x0c, 0x4b, 0x00, 0x1b, 0xe6, 0xec, 0x5c,
  0xf9, 0xd7, 0x0b, 0xdb, 0x2a, 0xdb, 0xe4, 0xe4, 0x04, 0xeb, 0xec, 0x29,
  0x34, 0x20, 0x1f, 0x0f, 0xd4, 0x3a, 0xd0, 0xfe, 0x00, 0xf3, 0xf3, 0x1c,
  0xda, 0xfc, 0x45, 0x4a, 0x01, 0x22, 0x0e, 0xfd, 0x01, 0xd8, 0xe6, 0x3b,
  0x32, 0x40, 0x17, 0xff, 0x23, 0x59, 0x11, 0x10, 0x27, 0x17, 0x34, 0xfd,
  0x18, 0x62, 0xf3, 0x41, 0x62, 0x1a, 0x62, 0x2d, 0x15, 0x3d, 0x3f, 0x43,
  0x70, 0x3d, 0x1b, 0x47, 0x19, 0x71, 0x3b, 0x1c, 0x7c, 0x4b, 0x3c, 0x5f,
  0x5b, 0x62, 0x18, 0x4f, 0x47, 0x0e, 0x15, 0x63, 0x1c, 0x11, 0x00, 0x0c,
  0x7f, 0x16, 0x6f, 0x53, 0xec, 0x55, 0xc4, 0x0b, 0x0a, 0xd8, 0x61, 0xcf,
  0xc8, 0x62, 0xcb, 0xa6, 0x67, 0xdd, 0xb5, 0xad, 0xdc, 0x23, 0x05, 0x92,
  0xdb, 0x93, 0x18, 0x7f, 0x3c, 0xf5, 0x00, 0xde, 0x26, 0x1d, 0xbd, 0x0f,
  0xaf, 0xc9, 0xd7, 0x2c, 0x58, 0x2e, 0xf8, 0xf6, 0x1a, 0x33, 0xa7, 0xa9,
  0xcf, 0x33, 0x4c, 0x0c, 0x9b, 0x87, 0x35, 0xf4, 0xe8, 0xa8, 0xa2, 0x57,
  0x0a, 0xca, 0x08, 0xf6, 0x86, 0xfe, 0xa6, 0x12, 0x5f, 0xce, 0xbc, 0xe6,
  0x23, 0xef, 0xc2, 0x77, 0xcf, 0xba, 0x53, 0x72, 0xb0, 0xd2, 0xad, 0x55,
  0x3d, 0x13, 0xd5, 0x0b, 0xf3, 0x14, 0x36, 0x79, 0xb4, 0x50, 0x1a, 0x4a,
  0x8f, 0xc2, 0x87, 0xc3, 0xaf, 0x4b, 0xc7, 0xc0, 0xef, 0xce, 0x14, 0x2c,
  0xfd, 0xa1, 0x01, 0x6b, 0xca, 0x26, 0x58, 0xd7, 0x2c, 0x06, 0x01, 0xf6,
  0x94, 0x83, 0xfb, 0xcb, 0x07, 0xb8, 0x8c, 0x63, 0x5d, 0x94, 0xb4, 0xac,
  0x04, 0x5b, 0x0e, 0x59, 0x93, 0x46, 0xfd, 0xc6, 0x90, 0xa3, 0xb5, 0xf4,
  0x2b, 0xc1, 0x9a, 0x0a, 0x26, 0xe4, 0x29, 0xf9, 0x51, 0x59, 0x3e, 0x38,
  0x11, 0xf6, 0xe3, 0x2d, 0x2a, 0xed, 0x40, 0x02, 0x28, 0x32, 0x05, 0xf1,
  0x14, 0x00, 0x0d, 0x3e, 0x40, 0x36, 0x3d, 0x1c, 0xe5, 0x26, 0x05, 0xf0,
  0x40, 0x5a, 0x1c, 0x0a, 0x2b, 0x1e, 0x09, 0x2a, 0xe5, 0xea, 0x47, 0x29,
  0x18, 0x15, 0x2b, 0x4d, 0x4a, 0x35, 0x0d, 0xfd, 0x09, 0xe1, 0x32, 0x40,
  0x27, 0x13, 0x0b, 0x1b, 0xdf, 0x12, 0x37, 0x18, 0xf1, 0x0b, 0x2e, 0x0a,
  0x0b, 0xf6, 0x02, 0x20, 0x22, 0x0a, 0xce, 0x1d, 0x40, 0x45, 0x0f, 0xef,
  0x1a, 0x0f, 0x2b, 0xdc, 0x27, 0xda, 0x2b, 0x57, 0xdf, 0x28, 0x2c, 0x41,
  0xf7, 0x30, 0xe2, 0xf2, 0xea, 0x01, 0x2d, 0x64, 0x40, 0xe4, 0x0e, 0x1b,
  0x2d, 0x3f, 0x41, 0x25, 0x7f, 0x33, 0x74, 0x63, 0xea, 0x5b, 0x0b, 0x33,
  0x4b, 0x54, 0x54, 0x42, 0x30, 0x7e, 0x2e, 0x24, 0x5d, 0xf1, 0x55, 0x4e,
  0x17, 0x30, 0x58, 0x6e, 0x4e, 0x41, 0x1c, 0x2b, 0x30, 0x27, 0x38, 0x1d,
  0x71, 0xed, 0x6d, 0x29, 0xb2, 0x49, 0x23, 0x0e, 0xff, 0x14, 0x92, 0xdd,
  0xc3, 0xa4, 0x9b, 0xa5, 0xa7, 0xd5, 0xcf, 0xbf, 0xee, 0xcd, 0x17, 0xa1,
  0x26, 0x28, 0x2a, 0xb7, 0x0c, 0x4e, 0x3b, 0xd0, 0xb6, 0xb9, 0x29, 0x3b,
  0x00, 0x27, 0x23, 0xa0, 0xbd, 0x55, 0x03, 0x9f, 0x21, 0xb6, 0x9a, 0x2c,
  0x21, 0x2b, 0x01, 0xfc, 0x16, 0xfd, 0xb6, 0x16, 0x24, 0x1a, 0xa3, 0x49,
  0xc7, 0x01, 0xb3, 0x3a, 0x30, 0x35, 0x1d, 0xcf, 0xf0, 0x1a, 0x45, 0x32,
  0xe0, 0x45, 0x99, 0x1f, 0x8d, 0xab, 0x02, 0x08, 0x2d, 0xd6, 0xbb, 0xe6,
  0xab, 0xa0, 0xcd, 0xf7, 0xe8, 0xd4, 0xe3, 0x59, 0xa8, 0xfb, 0xc9, 0x3a,
  0x39, 0xb2, 0x2c, 0xb9, 0x15, 0x4f, 0xbe, 0xd5, 0xaf, 0x36, 0x34, 0xcf,
  0xa2, 0xf6, 0x04, 0x23, 0x33, 0x92, 0xbf, 0xd8, 0x90, 0xf6, 0x12, 0xcf,
  0x1b, 0x3e, 0x37, 0x06, 0x46, 0x09, 0x0f, 0x01, 0x2e, 0x0a, 0x0a, 0xd9,
  0xbe, 0xf3, 0x31, 0x1e, 0x81, 0xb7, 0xdc, 0xe3, 0x3f, 0x0d, 0x41, 0xad,
  0xa7, 0xdd, 0x3c, 0xf3, 0x2d, 0xf4, 0x04, 0x19, 0xf7, 0x33, 0xd2, 0x02,
  0xfb, 0xcd, 0xeb, 0x14, 0xe5, 0x1b, 0x27, 0xe9, 0xc5, 0xe5, 0x0e, 0xd2,
  0x02, 0xe3, 0xc2, 0xf7, 0x06, 0x04, 0xf0, 0xd3, 0x01, 0xee, 0x1b, 0xf8,
  0xeb, 0x06, 0xd9, 0x0f, 0x1a, 0xcb, 0x16, 0x37, 0xc5, 0x0f, 0x0b, 0xf0,
  0xec, 0xe8, 0x0f, 0xfa, 0x05, 0xc9, 0x0f, 0xec, 0x09, 0x0e, 0xd5, 0xeb,
  0xc8, 0xeb, 0xe3, 0x0c, 0xe4, 0xc9, 0xd3, 0xf0, 0x1d, 0x11, 0xf7, 0x29,
  0x07, 0xd1, 0xcb, 0xea, 0x05, 0xc9, 0xbe, 0xd1, 0x26, 0x04, 0xe7, 0xc5,
  0xe0, 0xde, 0xcd, 0xdb, 0xef, 0xdf, 0x04, 0xfb, 0xe2, 0x1f, 0xe4, 0xf9,
  0x2d, 0x30, 0xdc, 0xe7, 0x53, 0x02, 0x4a, 0x5e, 0x7a, 0x27, 0x46, 0x01,
  0x2c, 0x63, 0x3b, 0x0b, 0x41, 0x19, 0x6c, 0x71, 0x5c, 0x04, 0x2a, 0x72,
  0x6c, 0xf4, 0x63, 0x1a, 0x32, 0x40, 0x4e, 0x55, 0x68, 0x54, 0x28, 0x1a,
  0x04, 0x36, 0x60, 0x7f, 0x66, 0x40, 0x27, 0x37, 0x57, 0x5b, 0x18, 0x1b,
  0x7d, 0x47, 0x3d, 0x66, 0xe6, 0x30, 0xf7, 0x19, 0xfb, 0x01, 0xfe, 0xcd,
  0x46, 0xec, 0x13, 0xd2, 0x83, 0xa4, 0x23, 0x46, 0x3d, 0xb2, 0xa7, 0xf3,
  0x8f, 0xe9, 0xa7, 0x27, 0xd5, 0x95, 0xca, 0xa5, 0x15, 0x21, 0x35, 0x00,
  0xb6, 0x96, 0x46, 0xdc, 0x4d, 0x35, 0xf1, 0x5d, 0xae, 0xa9, 0xf8, 0x83,
  0x03, 0xac, 0x42, 0x88, 0x23, 0xc6, 0x19, 0xde, 0xb9, 0xa0, 0x45, 0x3d,
  0x81, 0x00, 0x4e, 0x3b, 0x51, 0xd0, 0x64, 0x9d, 0x31, 0xaf, 0x63, 0xfe,
  0x50, 0xca, 0x24, 0xe1, 0xca, 0xa3, 0xfa, 0x4d, 0xbe, 0xb2, 0x43, 0x99,
  0xaa, 0x27, 0xca, 0x45, 0x16, 0x2d, 0x3b, 0x61, 0x28, 0x00, 0x45, 0x60,
  0x6f, 0x42, 0xeb, 0xe6, 0xba, 0x52, 0x39, 0xee, 0x9a, 0x09, 0xf1, 0xa2,
  0x18, 0xd1, 0x3a, 0xb3, 0x5c, 0x1e, 0x0f, 0xa0, 0x94, 0x4e, 0xf8, 0x9e,
  0xc9, 0xdb, 0x17, 0x8a, 0xa0, 0xb1, 0x59, 0x17, 0xb4, 0x4b, 0x66, 0xe0,
  0xe4, 0x00, 0x61, 0x03, 0x4a, 0x11, 0x91, 0xeb, 0xe0, 0xd4, 0x06, 0xfb,
  0x4c, 0xa0, 0xe7, 0x90, 0x32, 0x93, 0xff, 0x1a, 0xc1, 0x0e, 0x81, 0x28,
  0xa3, 0xaf, 0x46, 0x1d, 0x46, 0xc6, 0xbd, 0x31, 0xe0, 0xcc, 0x12, 0xb6,
  0x98, 0x96, 0x59, 0x42, 0x49, 0x13, 0xcf, 0xb2, 0x42, 0x2e, 0x09, 0xf3,
  0xe9, 0xc0, 0xfe, 0xd3, 0x5c, 0x35, 0xa6, 0x30, 0xeb, 0x8c, 0x39, 0xb0,
  0x9c, 0x0b, 0x47, 0x3f, 0xf9, 0x92, 0xc5, 0xcb, 0xc1, 0x99, 0x47, 0xf7,
  0xef, 0x4a, 0xff, 0x08, 0xb8, 0x89, 0xf3, 0xdf, 0x62, 0x0a, 0x0c, 0x9e,
  0x94, 0x1d, 0x24, 0xe5, 0x22, 0xc0, 0xf8, 0x9e, 0xeb, 0xa5, 0xc6, 0xeb,
  0xca, 0xcd, 0xe4, 0x35, 0x27, 0x1d, 0x04, 0x58, 0x8e, 0x08, 0xf6, 0xbe,
  0x21, 0x68, 0x3c, 0xdc, 0xf5, 0xfa, 0xf4, 0xac, 0xd9, 0xde, 0x33, 0xec,
  0x42, 0x1b, 0xcb, 0x15, 0x31, 0x58, 0xff, 0xda, 0xbc, 0xad, 0x95, 0x10,
  0x56, 0xc3, 0x52, 0x41, 0xd4, 0x3e, 0x87, 0xa9, 0xb3, 0x89, 0x9f, 0x0d,
  0xf4, 0xff, 0x09, 0x05, 0xef, 0x0f, 0xbb, 0x29, 0xa7, 0x00, 0xa3, 0xb2,
  0xf8, 0xc8, 0xf2, 0x3f, 0xfd, 0x8e, 0x4c, 0x4c, 0x54, 0xe5, 0x3b, 0x4c,
  0x22, 0xbc, 0xa4, 0xf7, 0xb2, 0xc1, 0x2a, 0x43, 0xa7, 0x9a, 0xd7, 0xfd,
  0x21, 0x4c, 0xff, 0x31, 0x5a, 0xcf, 0xa1, 0xa4, 0xa0, 0x15, 0x25, 0x3a,
  0xe0, 0xfe, 0x5c, 0x02, 0xd4, 0x8e, 0x4c, 0xd7, 0x95, 0xf4, 0x21, 0xa1,
  0x12, 0x8c, 0x63, 0x89, 0x2c, 0x8b, 0x91, 0xd4, 0x27, 0x90, 0xa8, 0xdd,
  0xb7, 0x3a, 0x1b, 0x8e, 0xd3, 0x1e, 0xbb, 0x31, 0xf0, 0xa8, 0x28, 0xa6,
  0x27, 0xa9, 0x10, 0xc9, 0x14, 0xd4, 0x95, 0xdd, 0x8a, 0xbb, 0x40, 0x42,
  0xa8, 0xa9, 0xb8, 0xa2, 0x12, 0x08, 0x5b, 0x8f, 0x82, 0xad, 0xaf, 0x06,
  0xf4, 0xa7, 0x54, 0x5c, 0x23, 0x0b, 0x40, 0x10, 0xe0, 0xd1, 0xde, 0x57,
  0x09, 0x82, 0x8c, 0x44, 0x29, 0xa9, 0xb2, 0x92, 0x02, 0x9b, 0xb1, 0x97,
  0x84, 0xfe, 0x50, 0xcb, 0x30, 0x31, 0x51, 0x0d, 0x43, 0x3f, 0xe1, 0xab,
  0xcc, 0xdd, 0xfb, 0x3c, 0x29, 0x34, 0xc2, 0x13, 0x0e, 0x51, 0xfb, 0xb0,
  0x37, 0x25, 0x81, 0x2c, 0xa3, 0x21, 0x43, 0x97, 0xb9, 0x86, 0xec, 0x99,
  0xaf, 0x11, 0x09, 0x6b, 0x52, 0xf1, 0x65, 0xcb, 0x3f, 0xc7, 0x52, 0x8f,
  0xf7, 0xc2, 0xf7, 0x28, 0xa0, 0xab, 0x8e, 0xa5, 0x06, 0x39, 0xd0, 0x20,
  0xb3, 0x03, 0x8a, 0xba, 0x53, 0xfe, 0x40, 0xa4, 0x47, 0xb5, 0xef, 0xc8,
  0xe6, 0x28, 0xa1, 0x00, 0xcf, 0x00, 0x9c, 0xa0, 0xac, 0x1c, 0xcf, 0x07,
  0x38, 0xef, 0x59, 0xf4, 0xc6, 0x97, 0x2a, 0x87, 0x15, 0xeb, 0x16, 0x2e,
  0xb5, 0xd3, 0xc7, 0x69, 0xad, 0xf2, 0xa1, 0xea, 0x3e, 0x1c, 0xc1, 0xb9,
  0xab, 0x91, 0xec, 0xf2, 0x3b, 0x24, 0x6a, 0xb2, 0x6a, 0x9d, 0x0a, 0xd8,
  0x8f, 0x29, 0x9b, 0x6a, 0x4a, 0x01, 0xc8, 0x11, 0x81, 0xb3, 0xac, 0x13,
  0x58, 0xfb, 0x3f, 0x0f, 0xbf, 0xa1, 0xea, 0x0f, 0xc2, 0xb7, 0xeb, 0x3f,
  0x0b, 0x65, 0x54, 0xf8, 0xff, 0xa4, 0x11, 0xce, 0xc1, 0xd8, 0x39, 0x4d,
  0xe9, 0x1a, 0x9b, 0x55, 0xce, 0xe0, 0xdd, 0x22, 0x95, 0x96, 0xb4, 0x9d,
  0x23, 0xf2, 0x08, 0x3f, 0x29, 0x0e, 0x30, 0x10, 0x2e, 0x13, 0x01, 0x7b,
  0x08, 0xfb, 0xf2, 0x4a, 0x09, 0x27, 0xff, 0xee, 0x4f, 0x0d, 0xef, 0xee,
  0x56, 0x23, 0x5b, 0x38, 0x30, 0x27, 0x50, 0x0a, 0x15, 0x27, 0x0f, 0x09,
  0x1e, 0x2e, 0x0b, 0x10, 0x14, 0x2f, 0x52, 0x51, 0x36, 0x54, 0x20, 0x19,
  0xed, 0x4d, 0x16, 0x29, 0x28, 0x3a, 0xf8, 0xf0, 0xf8, 0x0f, 0x1e, 0x51,
  0xda, 0xe5, 0x37, 0x16, 0xfc, 0x08, 0x31, 0x13, 0x06, 0xf8, 0xec, 0x11,
  0x37, 0x28, 0x27, 0x2e, 0xd9, 0x1f, 0xeb, 0xf7, 0xf5, 0x06, 0x20, 0x28,
  0x33, 0xf7, 0xe5, 0xe2, 0x0a, 0x09, 0xf6, 0x2c, 0xe1, 0xf2, 0x27, 0xe9,
  0x09, 0x09, 0x34, 0x3a, 0x39, 0x0f, 0x31, 0x6c, 0x58, 0x23, 0x24, 0x3c,
  0x2b, 0x19, 0x12, 0x45, 0x5d, 0x46, 0x5f, 0x13, 0x09, 0x3c, 0x28, 0x5b,
  0x40, 0x24, 0x1d, 0xf2, 0x2c, 0x4d, 0x4f, 0x0e, 0x5d, 0x31, 0x42, 0x4f,
  0x0b, 0x03, 0x2e, 0x7f, 0x27, 0x3f, 0x36, 0x06, 0x10, 0x5c, 0x0f, 0x35,
  0x42, 0x0f, 0x7f, 0x2e, 0xd4, 0xb1, 0xee, 0x31, 0x26, 0x0a, 0xbc, 0x81,
  0xef, 0x09, 0xc5, 0xe6, 0xc6, 0xea, 0x00, 0x48, 0xbe, 0x14, 0x1d, 0xe2,
  0xd1, 0xed, 0xf5, 0x8b, 0xda, 0xe5, 0x2d, 0xe1, 0x47, 0xcd, 0x31, 0xf8,
  0xc0, 0x92, 0xd1, 0xf9, 0xbc, 0xff, 0xf7, 0xb1, 0x23, 0x48, 0xf0, 0xdc,
  0xfa, 0xc4, 0x3a, 0xac, 0x47, 0xec, 0xd7, 0xbf, 0xe2, 0x20, 0x35, 0xf2,
  0xf1, 0x00, 0x44, 0x53, 0x6a, 0x14, 0x29, 0x51, 0xa5, 0xde, 0x4a, 0xcf,
  0x07, 0x33, 0x25, 0xfa, 0x61, 0xe8, 0xfa, 0xd5, 0x6f, 0x0a, 0x67, 0xf9,
  0x2e, 0x0e, 0x59, 0x31, 0xb1, 0xca, 0xf6, 0xbb, 0x36, 0x66, 0x11, 0xf9,
  0x43, 0xcf, 0x50, 0x3b, 0xbb, 0xcc, 0x14, 0xf0, 0x01, 0x5d, 0xa3, 0x9e,
  0xb0, 0xd2, 0xe3, 0xf8, 0xd5, 0xd3, 0xa5, 0xa1, 0x03, 0x30, 0xb6, 0x8c,
  0x88, 0xbf, 0x26, 0xd5, 0x05, 0x09, 0x23, 0x56, 0x02, 0x25, 0xe4, 0x1f,
  0x93, 0xa0, 0xb5, 0x1a, 0xd6, 0x4e, 0x10, 0xe0, 0xad, 0xf1, 0xae, 0x04,
  0xd1, 0x18, 0xb5, 0x88, 0x62, 0x86, 0xe6, 0x43, 0xec, 0xcf, 0xb3, 0xd2,
  0x08, 0xc3, 0x2b, 0x34, 0x49, 0x5a, 0xa7, 0x2e, 0x42, 0x40, 0xa4, 0x95,
  0xd9, 0x97, 0xe7, 0xe2, 0xd8, 0x5d, 0xbf, 0x96, 0x3d, 0xcb, 0xc3, 0xaa,
  0x94, 0x1b, 0xb5, 0xdd, 0xb2, 0x34, 0xaa, 0x39, 0xe6, 0xd3, 0xb9, 0x40,
  0xe8, 0x9a, 0x08, 0xb7, 0x51, 0x57, 0x2a, 0x46, 0xd3, 0xa5, 0x2c, 0xf0,
  0x95, 0x87, 0x84, 0x0d, 0x3b, 0x04, 0xf6, 0xb8, 0x4b, 0x11, 0x4b, 0x9e,
  0x29, 0x5e, 0xfe, 0xf1, 0xe6, 0x1b, 0xde, 0x47, 0x8e, 0xf4, 0x9d, 0xde,
  0x47, 0x1a, 0x0c, 0xad, 0x27, 0xd4, 0xc0, 0xf4, 0xbd, 0xbf, 0xed, 0xcc,
  0xf3, 0xb1, 0x1d, 0xa4, 0xbe, 0xc0, 0x2c, 0xa8, 0x38, 0x2f, 0x81, 0x14,
  0x43, 0xeb, 0x45, 0x0f, 0xf9, 0x4c, 0x14, 0xab, 0x2f, 0x51, 0xb7, 0xaf,
  0xd8, 0xb1, 0x86, 0xe6, 0xf3, 0x1d, 0x5a, 0xe0, 0x08, 0xe5, 0xd7, 0xc3,
  0x04, 0x65, 0x2c, 0x2e, 0x45, 0xe4, 0xc1, 0xb0, 0xaa, 0x8d, 0xd5, 0x4c,
  0xc6, 0x8e, 0xa5, 0xd0, 0x1b, 0x8e, 0xb9, 0x22, 0xe4, 0xb6, 0xd3, 0xaf,
  0x1d, 0x03, 0x83, 0xf6, 0x5a, 0x4d, 0x37, 0xd7, 0xa0, 0xcc, 0xfb, 0xa2,
  0xed, 0xd0, 0x68, 0xae, 0x35, 0xad, 0x3d, 0xd9, 0xb4, 0x0d, 0x19, 0xa4,
  0x26, 0xf0, 0xb6, 0x9f, 0xfd, 0x0e, 0x2a, 0x16, 0x8d, 0x36, 0x36, 0x9e,
  0x1c, 0xad, 0xe0, 0xf0, 0xcf, 0x11, 0x09, 0x17, 0x38, 0xdb, 0x4d, 0x3e,
  0xd5, 0x40, 0x5c, 0x43, 0xdd, 0x34, 0x58, 0xfe, 0x60, 0x8d, 0x33, 0xa5,
  0x5b, 0xec, 0xd2, 0x38, 0xb4, 0xf7, 0xfe, 0xb5, 0xce, 0xd3, 0xa3, 0xdc,
  0x5d, 0x5f, 0x4a, 0xa1, 0x47, 0x16, 0x35, 0x55, 0x65, 0x94, 0x67, 0xe1,
  0xbb, 0x0e, 0x1a, 0x81, 0xf6, 0x65, 0xd7, 0x0e, 0xd4, 0x87, 0x9c, 0x8c,
  0x28, 0x0a, 0xe0, 0x5a, 0x14, 0xa3, 0xb3, 0x96, 0x1b, 0xd4, 0x28, 0x0c,
  0xd9, 0x05, 0xa6, 0xf0, 0x52, 0x38, 0x50, 0xb7, 0xa1, 0xfc, 0x50, 0x4a,
  0x84, 0x2e, 0x0c, 0x35, 0xa7, 0x1c, 0xbe, 0xf1, 0x83, 0xc0, 0x01, 0xcb,
  0x3f, 0x2d, 0x87, 0xd5, 0xd5, 0x46, 0x19, 0x37, 0xed, 0x04, 0x88, 0xe4,
  0x03, 0xd8, 0x57, 0xdf, 0x0c, 0x4e, 0x3d, 0xd8, 0x5a, 0x3f, 0xc6, 0x3f,
  0xda, 0xb7, 0x51, 0x81, 0xb6, 0x47, 0xd9, 0x96, 0x21, 0xbc, 0xf4, 0x25,
  0xd8, 0xc9, 0x4e, 0xa7, 0x1e, 0x37, 0x4b, 0x92, 0x19, 0x17, 0x2d, 0x0b,
  0xce, 0x28, 0xcf, 0xc4, 0x9d, 0x9d, 0xbf, 0xec, 0xda, 0x2d, 0x1e, 0x22,
  0x97, 0xa9, 0xa2, 0xa4, 0x32, 0xf4, 0xef, 0xc2, 0xc1, 0xfb, 0x3f, 0x0e,
  0xd7, 0x11, 0x06, 0xf3, 0x99, 0xd6, 0x1f, 0xfc, 0x5b, 0x11, 0xea, 0xee,
  0xb1, 0xc5, 0x8f, 0xa9, 0x04, 0x27, 0x13, 0x52, 0xf4, 0xb5, 0x94, 0xf9,
  0xe3, 0xc7, 0x51, 0x9c, 0x35, 0x24, 0x94, 0x8f, 0xdc, 0x2a, 0xa5, 0xe5,
  0x41, 0x3e, 0x2a, 0xfc, 0x33, 0xf7, 0xc2, 0x4e, 0xfe, 0x2b, 0x25, 0x12,
  0x9b, 0x24, 0xd8, 0x47, 0x0e, 0x22, 0x31, 0xe5, 0x09, 0xa1, 0xa4, 0x3f,
  0x2d, 0xe7, 0xca, 0xd6, 0xe4, 0xde, 0xd7, 0x1a, 0xba, 0x45, 0xf7, 0x93,
  0xd0, 0xfa, 0x5d, 0x37, 0x15, 0x29, 0x03, 0x2e, 0x4f, 0x2d, 0x13, 0x4f,
  0x06, 0xea, 0x26, 0x4a, 0xdd, 0xf1, 0xf9, 0x3c, 0x3d, 0x56, 0x19, 0x3f,
  0x27, 0x14, 0xef, 0x3a, 0xe1, 0x46, 0x2f, 0xe2, 0x0d, 0xff, 0x4d, 0xfc,
  0x19, 0x52, 0x45, 0x04, 0xf2, 0x58, 0x33, 0x48, 0x12, 0x17, 0x28, 0x33,
  0x09, 0x48, 0x60, 0x46, 0x48, 0x3d, 0x03, 0x26, 0x21, 0x2a, 0x12, 0x0c,
  0x05, 0x31, 0xf7, 0x2e, 0x17, 0xf9, 0x30, 0x3e, 0x45, 0x42, 0x36, 0x2e,
  0x4c, 0x14, 0xd8, 0x45, 0xdc, 0xec, 0xe6, 0xd2, 0x3a, 0x1f, 0x10, 0x39,
  0x42, 0x06, 0x4a, 0xf5, 0x02, 0x33, 0x3f, 0x08, 0x20, 0x18, 0x1f, 0xd4,
  0x41, 0x3f, 0x0f, 0xdd, 0x27, 0x10, 0x45, 0x44, 0x76, 0xf0, 0x61, 0x35,
  0x66, 0x16, 0xfe, 0xe6, 0x5d, 0xe8, 0x54, 0x05, 0x2a, 0x43, 0x3e, 0x5b,
  0x1a, 0x49, 0x47, 0x11, 0x18, 0x62, 0x52, 0x50, 0x71, 0xf0, 0x71, 0x57,
  0x21, 0xfd, 0x46, 0x17, 0x7f, 0x3e, 0x3d, 0x5e, 0x69, 0x4b, 0x15, 0x33,
  0x35, 0x5b, 0x6c, 0x59, 0x30, 0x35, 0xf8, 0xec, 0x46, 0x1f, 0x3e, 0x4b,
  0x0f, 0x46, 0x06, 0x1a, 0xe5, 0x46, 0x42, 0x46, 0xea, 0xfa, 0xfe, 0x23,
  0x53, 0x36, 0x1e, 0x63, 0x1b, 0xf3, 0x47, 0x25, 0x39, 0x2a, 0x3b, 0x21,
  0x47, 0x02, 0x07, 0xfb, 0x44, 0x13, 0x40, 0x31, 0x31, 0x09, 0x3a, 0x38,
  0xe3, 0x0f, 0x1a, 0x19, 0x08, 0x09, 0xf4, 0x13, 0xfd, 0x2a, 0x01, 0x0f,
  0x23, 0x3b, 0xda, 0x38, 0xe6, 0x2d, 0xf5, 0x06, 0x24, 0xde, 0x3e, 0xfc,
  0x1f, 0xeb, 0xf9, 0x5d, 0xd6, 0xe6, 0x08, 0xfb, 0xed, 0x19, 0xf1, 0x01,
  0x1c, 0x3a, 0xee, 0x11, 0x45, 0xdf, 0x2c, 0x05, 0xf0, 0x30, 0x32, 0x13,
  0x15, 0xdb, 0xf7, 0x01, 0xec, 0x4c, 0x11, 0x43, 0x26, 0x0d, 0x4e, 0x24,
  0x2d, 0x0e, 0x3c, 0x0e, 0x40, 0x43, 0x6a, 0x3f, 0xff, 0x3b, 0x5f, 0x1a,
  0x60, 0x2b, 0x0c, 0x18, 0x00, 0x42, 0x4d, 0x11, 0x23, 0x1c, 0x7f, 0x5b,
  0x0d, 0x06, 0x1e, 0x22, 0x19, 0xef, 0x42, 0x40, 0x3e, 0x24, 0x37, 0x10,
  0x43, 0x0e, 0x6c, 0x30, 0x44, 0x2d, 0xed, 0x0b, 0xf0, 0x11, 0x08, 0x29,
  0x34, 0x07, 0x0d, 0x1e, 0x00, 0x09, 0x2a, 0xfb, 0x06, 0x45, 0x17, 0x11,
  0x33, 0x26, 0x08, 0x39, 0x31, 0x3f, 0x11, 0x3c, 0x2c, 0x31, 0x21, 0x2a,
  0x08, 0xf6, 0x08, 0x02, 0x40, 0x3a, 0x19, 0x2a, 0x2b, 0x12, 0x06, 0x11,
  0x00, 0x16, 0x44, 0x2f, 0x3a, 0x06, 0x2c, 0xff, 0xed, 0x39, 0x01, 0x1f,
  0x11, 0x01, 0x11, 0x09, 0x13, 0xdc, 0xde, 0x06, 0x3a, 0x0f, 0x26, 0x1f,
  0xde, 0x04, 0x27, 0x21, 0xed, 0xdf, 0xe1, 0x0d, 0x2c, 0x19, 0x0e, 0x0d,
  0x25, 0x08, 0xe4, 0x22, 0x15, 0xec, 0x26, 0x0f, 0xfe, 0x00, 0x2b, 0xfa,
  0x18, 0x2d, 0x0f, 0xf5, 0xf2, 0x3d, 0x12, 0x3b, 0x1e, 0xfb, 0x3d, 0x00,
  0x11, 0x34, 0xf8, 0x07, 0x51, 0x08, 0x7f, 0x22, 0x20, 0x3c, 0x14, 0x2c,
  0x0a, 0xeb, 0x4d, 0x41, 0x31, 0x42, 0x32, 0xf5, 0x23, 0x49, 0x28, 0x27,
  0x26, 0x1e, 0x5e, 0x64, 0x59, 0x35, 0x3e, 0x20, 0x1c, 0x4e, 0x43, 0x12,
  0x5a, 0xf3, 0x3f, 0x0f, 0xae, 0x04, 0xd1, 0x49, 0xb4, 0xe7, 0xfd, 0xd5,
  0x23, 0x00, 0x1e, 0x97, 0xe4, 0x53, 0x15, 0xf4, 0x84, 0xb3, 0x01, 0x4a,
  0x30, 0x58, 0x90, 0x34, 0x57, 0x10, 0x2c, 0xd7, 0xf2, 0x06, 0x9f, 0x97,
  0x4e, 0x9f, 0x88, 0x2c, 0xf0, 0x87, 0x8b, 0x02, 0xe5, 0x2b, 0xf4, 0x36,
  0x15, 0x8f, 0x3a, 0x9c, 0x91, 0x13, 0x67, 0xf1, 0xd0, 0x0e, 0x8e, 0xfd,
  0xf6, 0x02, 0xa4, 0x20, 0xd1, 0xea, 0xcd, 0x9f, 0x8c, 0x9f, 0x6b, 0xdd,
  0x68, 0x11, 0x39, 0x52, 0x2a, 0x2f, 0xc3, 0xdb, 0x8a, 0x5b, 0x41, 0x34,
  0xdf, 0xa7, 0x26, 0x11, 0xe6, 0xb2, 0xaf, 0xb1, 0x0d, 0x50, 0x20, 0x2f,
  0x37, 0x47, 0x9b, 0x3f, 0xe1, 0x32, 0x31, 0xf2, 0x83, 0x1f, 0x54, 0x92,
  0x3f, 0x12, 0xa3, 0xd1, 0xf4, 0x93, 0x58, 0x81, 0x5a, 0x43, 0x27, 0xa6,
  0xa6, 0xbf, 0x9b, 0x68, 0x42, 0xa4, 0x6a, 0xbc, 0x4d, 0xd1, 0x1c, 0xaa,
  0x3a, 0xd0, 0x9c, 0x3d, 0xd1, 0x95, 0x52, 0xa4, 0xa8, 0x4a, 0x36, 0xf3,
  0xda, 0xf5, 0xe2, 0x51, 0x32, 0x4a, 0xef, 0x23, 0x2f, 0x2a, 0x3e, 0x1f,
  0xfb, 0x20, 0x22, 0x42, 0x19, 0x2f, 0xed, 0xe8, 0x4d, 0x34, 0x31, 0x2e,
  0x1f, 0x2e, 0x3a, 0x40, 0x31, 0x08, 0xe3, 0x2c, 0xea, 0x19, 0x1e, 0x24,
  0x15, 0x0f, 0x3c, 0x1e, 0xfa, 0x42, 0x16, 0x3b, 0x29, 0x1a, 0x4e, 0x37,
  0xed, 0x01, 0x3d, 0x13, 0x3a, 0xe5, 0xe1, 0xf9, 0xf4, 0xdd, 0xf3, 0x5b,
  0x2e, 0x0c, 0x2c, 0xe8, 0x3b, 0xf3, 0xde, 0x07, 0xe9, 0x09, 0xfd, 0x0f,
  0x41, 0x0d, 0x15, 0x01, 0xfd, 0xd5, 0x1a, 0x38, 0x33, 0x30, 0x2c, 0xf9,
  0xdb, 0x37, 0x39, 0x2d, 0x40, 0x28, 0xe7, 0x35, 0x11, 0x2c, 0x31, 0x35,
  0x2d, 0xe9, 0xf6, 0x11, 0xeb, 0x35, 0x00, 0x3a, 0x51, 0xf8, 0x3d, 0x00,
  0x45, 0x27, 0xff, 0xf7, 0x66, 0x54, 0x7f, 0x4d, 0x4b, 0x25, 0x26, 0x42,
  0x42, 0x16, 0x2f, 0x35, 0x62, 0x65, 0x4a, 0x29, 0x1a, 0x40, 0x66, 0x46,
  0xf2, 0xf3, 0x3d, 0x1a, 0x6e, 0x07, 0x4b, 0x35, 0x02, 0x33, 0x4f, 0xfb,
  0x7a, 0x1b, 0x46, 0x1d, 0xf4, 0xb2, 0xd0, 0x3f, 0xd2, 0xbd, 0x11, 0x96,
  0xde, 0x4e, 0x0e, 0xcc, 0xfc, 0xa3, 0x20, 0xd6, 0x1d, 0xe1, 0x0b, 0x1c,
  0x1f, 0x3b, 0xe6, 0x9b, 0xbf, 0x4f, 0xfd, 0xd8, 0x09, 0x95, 0xf6, 0xa9,
  0x8b, 0xb2, 0x11, 0x1e, 0x02, 0x07, 0x91, 0xa0, 0xee, 0xd4, 0xc3, 0xd4,
  0x21, 0xb6, 0x0c, 0x9c, 0x20, 0xf4, 0x3d, 0x2f, 0xe8, 0x26, 0xff, 0x1c,
  0x0a, 0x0a, 0xe8, 0x0f, 0x22, 0x5d, 0x5e, 0x45, 0x16, 0x31, 0xdd, 0x38,
  0xf8, 0x5c, 0x40, 0xf8, 0x2a, 0x57, 0x75, 0xeb, 0x49, 0x5f, 0x16, 0xf0,
  0xbd, 0x01, 0xb7, 0x0a, 0x00, 0x54, 0xed, 0xfc, 0x45, 0x5b, 0xd4, 0xd1,
  0x64, 0x32, 0x39, 0x3e, 0x02, 0xbf, 0x91, 0xa9, 0x9a, 0xf7, 0x21, 0x09,
  0xa6, 0x30, 0x59, 0xf8, 0x8f, 0x48, 0x1c, 0xa6, 0x1f, 0xbd, 0xb3, 0x99,
  0xa8, 0x43, 0xac, 0x02, 0xdd, 0x15, 0x53, 0x2f, 0xca, 0x05, 0xba, 0xba,
  0xd2, 0x97, 0x81, 0xb6, 0xe0, 0xf7, 0xc6, 0x9e, 0xc2, 0x09, 0x1b, 0x1f,
  0xce, 0x1c, 0xf5, 0xdc, 0x40, 0x01, 0xfd, 0x4b, 0x1f, 0x1a, 0x44, 0x3c,
  0x08, 0x24, 0x18, 0x26, 0x29, 0x35, 0x33, 0x31, 0xfe, 0x23, 0x29, 0x33,
  0x28, 0x4c, 0x1e, 0x3b, 0x2a, 0xe8, 0x19, 0x15, 0xe4, 0x16, 0x0c, 0x44,
  0x26, 0x0d, 0xe8, 0x52, 0x4f, 0x18, 0x2e, 0x69, 0xfc, 0x16, 0x49, 0xfc,
  0x3b, 0x09, 0xf6, 0xee, 0x07, 0xe3, 0x2d, 0xdd, 0x19, 0x19, 0x0c, 0x0a,
  0xe6, 0x0e, 0xe2, 0x11, 0xec, 0xf3, 0xe9, 0x25, 0xe8, 0x33, 0x13, 0xf7,
  0xfc, 0x18, 0x0d, 0x0d, 0xd8, 0x15, 0xef, 0x0b, 0x2f, 0x1d, 0x0e, 0xe5,
  0xe6, 0x15, 0x23, 0x12, 0xe1, 0x04, 0x3b, 0xfa, 0xf8, 0xfe, 0x02, 0xff,
  0x00, 0x3b, 0x32, 0xeb, 0x4e, 0x16, 0x22, 0x2d, 0x56, 0x30, 0x3c, 0xfa,
  0x46, 0x60, 0x47, 0x02, 0x74, 0x2f, 0x2a, 0x1e, 0x33, 0x26, 0x28, 0x46,
  0x1e, 0x25, 0x0d, 0x13, 0x25, 0x62, 0x0f, 0x2f, 0x4c, 0x4f, 0x7c, 0x59,
  0x28, 0x52, 0x22, 0x61, 0x4d, 0x4a, 0x0a, 0x09, 0x5f, 0x31, 0xf7, 0x1c,
  0x61, 0x35, 0x7f, 0x40, 0x0b, 0x4e, 0x2b, 0x0b, 0x59, 0x24, 0x4a, 0x7f,
  0x42, 0xe6, 0xfe, 0x48, 0x36, 0x40, 0x0c, 0x46, 0x2a, 0xfa, 0xff, 0x3f,
  0x5d, 0xed, 0x1a, 0x65, 0x3a, 0xf4, 0x21, 0x2f, 0xda, 0x14, 0x56, 0x3c,
  0x00, 0x4f, 0x1a, 0x56, 0x32, 0x09, 0x54, 0x3d, 0x3a, 0x2b, 0x09, 0x44,
  0xe2, 0x0f, 0x46, 0x3a, 0xf1, 0x03, 0x36, 0x2e, 0x2a, 0x31, 0x06, 0x5a,
  0xe9, 0x00, 0xd1, 0xd8, 0xd6, 0x34, 0x33, 0xe4, 0x0d, 0x2d, 0xf1, 0x26,
  0x02, 0x3f, 0x26, 0x44, 0x13, 0x07, 0x0f, 0xde, 0xfd, 0x00, 0x02, 0x0c,
  0x3f, 0x2c, 0x3e, 0xfc, 0x00, 0x2f, 0xf4, 0x4d, 0xfa, 0x1b, 0x3d, 0x1b,
  0xe6, 0x12, 0x12, 0xe1, 0xee, 0x28, 0x47, 0x7f, 0x36, 0x31, 0x06, 0x52,
  0x39, 0x45, 0x1f, 0x49, 0x70, 0x5a, 0x59, 0x17, 0x44, 0x26, 0x5d, 0x39,
  0x74, 0xfa, 0x13, 0x28, 0x00, 0x1f, 0x02, 0x14, 0x7a, 0xea, 0x5f, 0xfc,
  0x23, 0xfe, 0x5b, 0x4c, 0x77, 0x49, 0x06, 0x65, 0x0c, 0x49, 0x32, 0x3f,
  0x1d, 0x2d, 0x69, 0x1f, 0x3e, 0x47, 0x1c, 0x2a, 0x47, 0x4d, 0x15, 0x36,
  0x33, 0x44, 0x13, 0x50, 0x00, 0x44, 0x54, 0xf4, 0x44, 0xf5, 0xfe, 0x0d,
  0xf3, 0x15, 0x4a, 0x27, 0x46, 0x1c, 0x51, 0x01, 0x42, 0xf9, 0x42, 0xf3,
  0x1b, 0x0d, 0x00, 0x0d, 0x28, 0xfc, 0x46, 0x68, 0xf4, 0x26, 0xf7, 0xff,
  0x37, 0x1b, 0x4c, 0x04, 0x17, 0xf0, 0x06, 0xea, 0x39, 0xfd, 0x2f, 0x08,
  0xe3, 0x2a, 0xed, 0x0c, 0xf7, 0x22, 0xef, 0x1e, 0x14, 0x2a, 0xee, 0x29,
  0xdc, 0xf4, 0x3e, 0x01, 0x18, 0x1f, 0x36, 0xe1, 0xd2, 0xf0, 0x23, 0xd5,
  0x12, 0xfb, 0x11, 0x2b, 0x45, 0x20, 0xe2, 0x28, 0x30, 0x07, 0xf7, 0x13,
  0x29, 0x42, 0x26, 0xdb, 0x3b, 0x3a, 0x16, 0x7f, 0x46, 0xfb, 0x67, 0x4b,
  0x6b, 0x35, 0x1d, 0x49, 0x7c, 0x21, 0x39, 0x69, 0x3f, 0x5b, 0x40, 0x79,
  0x2c, 0x20, 0x51, 0x36, 0x61, 0x41, 0x22, 0x11, 0x3e, 0x10, 0x50, 0x5d,
  0x32, 0x50, 0x5e, 0x75, 0x38, 0x2f, 0x6c, 0x54, 0x68, 0x48, 0x41, 0xf8,
  0x3a, 0xfe, 0x3c, 0x4b, 0x9b, 0x27, 0xff, 0xf2, 0x2f, 0xad, 0xde, 0xc0,
  0xca, 0xec, 0x17, 0x54, 0xde, 0x99, 0x98, 0xc3, 0x4c, 0xbc, 0x28, 0xc7,
  0xe5, 0x4c, 0x36, 0x2b, 0x1d, 0xec, 0x20, 0x86, 0x24, 0x89, 0xa1, 0xc3,
  0xfc, 0xa1, 0xe6, 0xc6, 0x38, 0x32, 0x59, 0x2c, 0x9c, 0xbf, 0x56, 0xd4,
  0x81, 0x5b, 0xc1, 0x8d, 0x56, 0xf3, 0x93, 0xc3, 0x88, 0xdf, 0x8f, 0x1e,
  0xfa, 0x1a, 0x3a, 0x19, 0x8b, 0x37, 0x3e, 0x08, 0x9b, 0x1c, 0x5f, 0x9e,
  0x1c, 0xd8, 0xb7, 0xdb, 0x23, 0x96, 0xf1, 0x0e, 0x9e, 0x30, 0xf0, 0xef,
  0x5a, 0xe0, 0x65, 0x8d, 0xfd, 0x42, 0xd9, 0xa6, 0xeb, 0x90, 0x33, 0xf6,
  0xfe, 0x64, 0x4a, 0x04, 0xc0, 0x86, 0x3d, 0x36, 0x06, 0x8d, 0x0c, 0xeb,
  0x65, 0xbf, 0xbb, 0xcd, 0xcf, 0xa8, 0x3f, 0x93, 0xe2, 0xac, 0xc1, 0x3e,
  0x3d, 0x57, 0xbd, 0xa1, 0xd3, 0xbd, 0xa3, 0xf1, 0x6b, 0xea, 0x0c, 0xed,
  0xe0, 0xe1, 0x2b, 0x43, 0x91, 0x1c, 0xe6, 0x15, 0x48, 0xff, 0xce, 0xe7,
  0x40, 0xc7, 0x30, 0x87, 0x1d, 0xd5, 0x12, 0x81, 0xfe, 0x1f, 0x01, 0x81,
  0x59, 0x32, 0x56, 0xb3, 0xed, 0xbd, 0x39, 0x3c, 0xff, 0x10, 0xc7, 0xdd,
  0x58, 0xde, 0xe0, 0x5f, 0x16, 0x0c, 0xc9, 0xe9, 0x14, 0xc1, 0x11, 0xa0,
  0xb1, 0x2e, 0x3a, 0xdc, 0x44, 0x1f, 0x48, 0xfb, 0x41, 0x38, 0xdb, 0x91,
  0xb5, 0xc5, 0x17, 0xeb, 0x4e, 0xfb, 0x4d, 0xb2, 0x5a, 0x9d, 0xed, 0x95,
  0xe0, 0xb8, 0xbd, 0x88, 0xf9, 0x2a, 0xfd, 0xc3, 0x0e, 0x37, 0xcf, 0xf7,
  0xb3, 0x2d, 0xf4, 0x01, 0xce, 0xb0, 0xa1, 0x9f, 0x52, 0x90, 0x10, 0xd7,
  0xe4, 0xa5, 0xd4, 0xc9, 0xbf, 0xdc, 0xae, 0x54, 0xad, 0x28, 0xa5, 0x1c,
  0xb2, 0x37, 0x03, 0xfa, 0xc2, 0x8c, 0xb1, 0xab, 0xbf, 0xdd, 0xed, 0x0c,
  0x2e, 0xf5, 0xba, 0x00, 0x1f, 0xab, 0x6b, 0x9e, 0x4f, 0xa0, 0x15, 0x38,
  0xd9, 0x17, 0xe3, 0x5d, 0xaa, 0x09, 0x56, 0x50, 0x28, 0xec, 0x2b, 0x1c,
  0xac, 0x3b, 0x20, 0x55, 0xc9, 0x91, 0x8e, 0xed, 0x14, 0xe6, 0x06, 0xb5,
  0xae, 0x1c, 0xf5, 0x37, 0x0f, 0x32, 0x4e, 0x21, 0x57, 0x40, 0x2b, 0x7f,
  0x29, 0x1d, 0x0e, 0x1b, 0xf3, 0xf9, 0x10, 0x15, 0x29, 0xf3, 0xe6, 0x14,
  0x1b, 0x40, 0xf8, 0x3c, 0x49, 0x0a, 0x1e, 0x01, 0xe9, 0x4e, 0x34, 0x01,
  0x06, 0x3d, 0x46, 0x55, 0x0b, 0x31, 0xf5, 0x58, 0x1a, 0x55, 0xe5, 0x09,
  0x13, 0x4d, 0x30, 0x38, 0xec, 0xfb, 0x44, 0xed, 0x08, 0x27, 0x0a, 0x3a,
  0xef, 0x1e, 0x2b, 0x22, 0x1b, 0x1f, 0x00, 0x1e, 0x25, 0x03, 0xe5, 0xe9,
  0xe9, 0x31, 0xec, 0x2a, 0xef, 0x37, 0x34, 0x19, 0x16, 0x19, 0x25, 0xf7,
  0xf2, 0xf4, 0xe8, 0x27, 0x45, 0x3e, 0x11, 0x18, 0xf3, 0x12, 0x23, 0xdc,
  0x2d, 0xdc, 0x16, 0x05, 0x5b, 0x3d, 0x0b, 0x77, 0x2d, 0x12, 0x5b, 0x39,
  0x40, 0x36, 0xf5, 0x14, 0x65, 0x10, 0x7f, 0xfb, 0x3d, 0x12, 0x6a, 0x18,
  0x3d, 0xfb, 0x2b, 0x1b, 0x3c, 0x15, 0xf8, 0x2b, 0x2f, 0x51, 0x31, 0x15,
  0xeb, 0x3b, 0x4c, 0x53, 0x4c, 0x0f, 0x30, 0x20, 0x32, 0x36, 0x24, 0x26,
  0x18, 0x01, 0x63, 0x3c, 0x36, 0xff, 0xff, 0xff, 0x04, 0x00, 0x00, 0x00,
  0x80, 0x00, 0x00, 0x00, 0x90, 0xf8, 0xff, 0xff, 0x10, 0xf5, 0xff, 0xff,
  0x0b, 0xf6, 0xff, 0xff, 0x9f, 0xfa, 0xff, 0xff, 0x98, 0x57, 0x00, 0x00,
  0x9b, 0xf5, 0xff, 0xff, 0xb7, 0xf5, 0xff, 0xff, 0x69, 0xfe, 0xff, 0xff,
  0x7b, 0xf5, 0xff, 0xff, 0xf1, 0xf8, 0xff, 0xff, 0x2d, 0xfb, 0xff, 0xff,
  0x43, 0x00, 0x00, 0x00, 0x59, 0xf5, 0xff, 0xff, 0xe1, 0xf9, 0xff, 0xff,
  0xde, 0xfa, 0xff, 0xff, 0x42, 0xf5, 0xff, 0xff, 0x8f, 0x5b, 0x00, 0x00,
  0x85, 0xf9, 0xff, 0xff, 0xfd, 0xfb, 0xff, 0xff, 0x72, 0xf8, 0xff, 0xff,
  0xae, 0xf4, 0xff, 0xff, 0xee, 0xf6, 0xff, 0xff, 0xfe, 0xf6, 0xff, 0xff,
  0x05, 0xf9, 0xff, 0xff, 0x24, 0xf6, 0xff, 0xff, 0xb3, 0x7a, 0x00, 0x00,
  0xd2, 0xf6, 0xff, 0xff, 0x93, 0xf4, 0xff, 0xff, 0x76, 0xf3, 0xff, 0xff,
  0x38, 0xf8, 0xff, 0xff, 0x22, 0xf7, 0xff, 0xff, 0x6c, 0xf6, 0xff, 0xff,
  0xc2, 0xff, 0xff, 0xff, 0x04, 0x00, 0x00, 0x00, 0x20, 0x00, 0x00, 0x00,
  0x29, 0xad, 0xa6, 0x1e, 0x7f, 0xb2, 0xc5, 0x2a, 0xae, 0x4a, 0xda, 0x0b,
  0x47, 0x29, 0x18, 0xe8, 0x39, 0x1d, 0x25, 0x0b, 0xdb, 0xbd, 0xd2, 0x3a,
  0xc4, 0x4f, 0xbf, 0xdc, 0xe6, 0x37, 0x3c, 0xb6, 0xee, 0xff, 0xff, 0xff,
  0x04, 0x00, 0x00, 0x00, 0x04, 0x00, 0x00, 0x00, 0x93, 0x04, 0x00, 0x00,
  0x00, 0x00, 0x06, 0x00, 0x08, 0x00, 0x04, 0x00, 0x06, 0x00, 0x00, 0x00,
  0x04, 0x00, 0x00, 0x00, 0x08, 0x00, 0x00, 0x00, 0x01, 0x00, 0x00, 0x00,
  0x02, 0x00, 0x00, 0x00, 0x7c, 0xef, 0xff, 0xff, 0x80, 0xef, 0xff, 0xff,
  0x0f, 0x00, 0x00, 0x00, 0x4d, 0x4c, 0x49, 0x52, 0x20, 0x43, 0x6f, 0x6e,
  0x76, 0x65, 0x72, 0x74, 0x65, 0x64, 0x2e, 0x00, 0x01, 0x00, 0x00, 0x00,
  0x14, 0x00, 0x00, 0x00, 0x00, 0x00, 0x0e, 0x00, 0x18, 0x00, 0x14, 0x00,
  0x10, 0x00, 0x0c, 0x00, 0x08, 0x00, 0x04, 0x00, 0x0e, 0x00, 0x00, 0x00,
  0x14, 0x00, 0x00, 0x00, 0x1c, 0x00, 0x00, 0x00, 0x48, 0x02, 0x00, 0x00,
  0x4c, 0x02, 0x00, 0x00, 0x50, 0x02, 0x00, 0x00, 0x04, 0x00, 0x00, 0x00,
  0x6d, 0x61, 0x69, 0x6e, 0x00, 0x00, 0x00, 0x00, 0x08, 0x00, 0x00, 0x00,
  0xe0, 0x01, 0x00, 0x00, 0x7c, 0x01, 0x00, 0x00, 0x28, 0x01, 0x00, 0x00,
  0xe4, 0x00, 0x00, 0x00, 0xa0, 0x00, 0x00, 0x00, 0x6c, 0x00, 0x00, 0x00,
  0x34, 0x00, 0x00, 0x00, 0x10, 0x00, 0x00, 0x00, 0x00, 0x00, 0x0a, 0x00,
  0x10, 0x00, 0x0c, 0x00, 0x08, 0x00, 0x04, 0x00, 0x0a, 0x00, 0x00, 0x00,
  0x0c, 0x00, 0x00, 0x00, 0x10, 0x00, 0x00, 0x00, 0x04, 0x00, 0x00, 0x00,
  0x01, 0x00, 0x00, 0x00, 0x11, 0x00, 0x00, 0x00, 0x01, 0x00, 0x00, 0x00,
  0x10, 0x00, 0x00, 0x00, 0xda, 0xfe, 0xff, 0xff, 0x14, 0x00, 0x00, 0x00,
  0x00, 0x00, 0x00, 0x08, 0x10, 0x00, 0x00, 0x00, 0x14, 0x00, 0x00, 0x00,
  0x03, 0x00, 0x00, 0x00, 0x3c, 0xf0, 0xff, 0xff, 0x01, 0x00, 0x00, 0x00,
  0x10, 0x00, 0x00, 0x00, 0x03, 0x00, 0x00, 0x00, 0x0f, 0x00, 0x00, 0x00,
  0x03, 0x00, 0x00, 0x00, 0x02, 0x00, 0x00, 0x00, 0x0e, 0xff, 0xff, 0xff,
  0x14, 0x00, 0x00, 0x00, 0x00, 0x00, 0x00, 0x1b, 0x10, 0x00, 0x00, 0x00,
  0x14, 0x00, 0x00, 0x00, 0x02, 0x00, 0x00, 0x00, 0x70, 0xf0, 0xff, 0xff,
  0x01, 0x00, 0x00, 0x00, 0x0f, 0x00, 0x00, 0x00, 0x02, 0x00, 0x00, 0x00,
  0x0e, 0x00, 0x00, 0x00, 0x01, 0x00, 0x00, 0x00, 0xde, 0xfe, 0xff, 0xff,
  0x10, 0x00, 0x00, 0x00, 0x00, 0x00, 0x00, 0x01, 0x1c, 0x00, 0x00, 0x00,
  0x20, 0x00, 0x00, 0x00, 0xd0, 0xfe, 0xff, 0xff, 0x00, 0x00, 0x00, 0x01,
  0x01, 0x00, 0x00, 0x00, 0x01, 0x00, 0x00, 0x00, 0x00, 0x00, 0x00, 0x01,
  0x01, 0x00, 0x00, 0x00, 0x0e, 0x00, 0x00, 0x00, 0x03, 0x00, 0x00, 0x00,
  0x0d, 0x00, 0x00, 0x00, 0x05, 0x00, 0x00, 0x00, 0x04, 0x00, 0x00, 0x00,
  0x7e, 0xff, 0xff, 0xff, 0x14, 0x00, 0x00, 0x00, 0x00, 0x00, 0x00, 0x05,
  0x24, 0x00, 0x00, 0x00, 0x28, 0x00, 0x00, 0x00, 0x01, 0x00, 0x00, 0x00,
  0x6e, 0xff, 0xff, 0xff, 0x02, 0x00, 0x00, 0x00, 0x02, 0x00, 0x00, 0x00,
  0x02, 0x00, 0x00, 0x00, 0x02, 0x00, 0x00, 0x00, 0x00, 0x00, 0x00, 0x01,
  0x01, 0x00, 0x00, 0x00, 0x0d, 0x00, 0x00, 0x00, 0x01, 0x00, 0x00, 0x00,
  0x0c, 0x00, 0x00, 0x00, 0x5e, 0xff, 0xff, 0xff, 0x10, 0x00, 0x00, 0x00,
  0x00, 0x00, 0x00, 0x01, 0x1c, 0x00, 0x00, 0x00, 0x20, 0x00, 0x00, 0x00,
  0x50, 0xff, 0xff, 0xff, 0x00, 0x00, 0x00, 0x01, 0x01, 0x00, 0x00, 0x00,
  0x01, 0x00, 0x00, 0x00, 0x00, 0x00, 0x00, 0x01, 0x01, 0x00, 0x00, 0x00,
  0x0c, 0x00, 0x00, 0x00, 0x03, 0x00, 0x00, 0x00, 0x0b, 0x00, 0x00, 0x00,
  0x07, 0x00, 0x00, 0x00, 0x06, 0x00, 0x00, 0x00, 0x00, 0x00, 0x0e, 0x00,
  0x1a, 0x00, 0x14, 0x00, 0x10, 0x00, 0x0c, 0x00, 0x0b, 0x00, 0x04, 0x00,
  0x0e, 0x00, 0x00, 0x00, 0x24, 0x00, 0x00, 0x00, 0x00, 0x00, 0x00, 0x05,
  0x34, 0x00, 0x00, 0x00, 0x38, 0x00, 0x00, 0x00, 0x01, 0x00, 0x00, 0x00,
  0x00, 0x00, 0x0e, 0x00, 0x18, 0x00, 0x17, 0x00, 0x10, 0x00, 0x0c, 0x00,
  0x08, 0x00, 0x04, 0x00, 0x0e, 0x00, 0x00, 0x00, 0x02, 0x00, 0x00, 0x00,
  0x02, 0x00, 0x00, 0x00, 0x02, 0x00, 0x00, 0x00, 0x02, 0x00, 0x00, 0x00,
  0x00, 0x00, 0x00, 0x01, 0x01, 0x00, 0x00, 0x00, 0x0b, 0x00, 0x00, 0x00,
  0x01, 0x00, 0x00, 0x00, 0x0a, 0x00, 0x00, 0x00, 0x00, 0x00, 0x0e, 0x00,
  0x14, 0x00, 0x00, 0x00, 0x10, 0x00, 0x0c, 0x00, 0x0b, 0x00, 0x04, 0x00,
  0x0e, 0x00, 0x00, 0x00, 0x1c, 0x00, 0x00, 0x00, 0x00, 0x00, 0x00, 0x01,
  0x28, 0x00, 0x00, 0x00, 0x2c, 0x00, 0x00, 0x00, 0x0c, 0x00, 0x14, 0x00,
  0x13, 0x00, 0x0c, 0x00, 0x08, 0x00, 0x07, 0x00, 0x0c, 0x00, 0x00, 0x00,
  0x00, 0x00, 0x00, 0x01, 0x01, 0x00, 0x00, 0x00, 0x01, 0x00, 0x00, 0x00,
  0x00, 0x00, 0x00, 0x01, 0x01, 0x00, 0x00, 0x00, 0x0a, 0x00, 0x00, 0x00,
  0x03, 0x00, 0x00, 0x00, 0x00, 0x00, 0x00, 0x00, 0x09, 0x00, 0x00, 0x00,
  0x08, 0x00, 0x00, 0x00, 0x01, 0x00, 0x00, 0x00, 0x11, 0x00, 0x00, 0x00,
  0x01, 0x00, 0x00, 0x00, 0x00, 0x00, 0x00, 0x00, 0x12, 0x00, 0x00, 0x00,
  0x24, 0x0e, 0x00, 0x00, 0xc8, 0x0d, 0x00, 0x00, 0x50, 0x0d, 0x00, 0x00,
  0xec, 0x0c, 0x00, 0x00, 0x18, 0x0b, 0x00, 0x00, 0x34, 0x09, 0x00, 0x00,
  0x20, 0x08, 0x00, 0x00, 0xfc, 0x06, 0x00, 0x00, 0x48, 0x06, 0x00, 0x00,
  0x84, 0x05, 0x00, 0x00, 0xb0, 0x04, 0x00, 0x00, 0x14, 0x04, 0x00, 0x00,
  0x20, 0x03, 0x00, 0x00, 0x84, 0x02, 0x00, 0x00, 0xb0, 0x01, 0x00, 0x00,
  0x1c, 0x01, 0x00, 0x00, 0x80, 0x00, 0x00, 0x00, 0x04, 0x00, 0x00, 0x00,
  0x3a, 0xf2, 0xff, 0xff, 0x00, 0x00, 0x00, 0x01, 0x18, 0x00, 0x00, 0x00,
  0x20, 0x00, 0x00, 0x00, 0x3c, 0x00, 0x00, 0x00, 0x12, 0x00, 0x00, 0x00,
  0x00, 0x00, 0x00, 0x09, 0x50, 0x00, 0x00, 0x00, 0x02, 0x00, 0x00, 0x00,
  0xff, 0xff, 0xff, 0xff, 0x01, 0x00, 0x00, 0x00, 0x1c, 0xf2, 0xff, 0xff,
  0x08, 0x00, 0x00, 0x00, 0x10, 0x00, 0x00, 0x00, 0x01, 0x00, 0x00, 0x00,
  0x80, 0xff, 0xff, 0xff, 0xff, 0xff, 0xff, 0xff, 0x01, 0x00, 0x00, 0x00,
  0x00, 0x00, 0x80, 0x3b, 0x1b, 0x00, 0x00, 0x00, 0x53, 0x74, 0x61, 0x74,
  0x65, 0x66, 0x75, 0x6c, 0x50, 0x61, 0x72, 0x74, 0x69, 0x74, 0x69, 0x6f,
  0x6e, 0x65, 0x64, 0x43, 0x61, 0x6c, 0x6c, 0x5f, 0x31, 0x3a, 0x30, 0x00,
  0x02, 0x00, 0x00, 0x00, 0x01, 0x00, 0x00, 0x00, 0x01, 0x00, 0x00, 0x00,
  0xb2, 0xf2, 0xff, 0xff, 0x00, 0x00, 0x00, 0x01, 0x18, 0x00, 0x00, 0x00,
  0x20, 0x00, 0x00, 0x00, 0x40, 0x00, 0x00, 0x00, 0x11, 0x00, 0x00, 0x00,
  0x00, 0x00, 0x00, 0x09, 0x70, 0x00, 0x00, 0x00, 0x02, 0x00, 0x00, 0x00,
  0xff, 0xff, 0xff, 0xff, 0x01, 0x00, 0x00, 0x00, 0x94, 0xf2, 0xff, 0xff,
  0x08, 0x00, 0x00, 0x00, 0x14, 0x00, 0x00, 0x00, 0x01, 0x00, 0x00, 0x00,
  0x7a, 0x00, 0x00, 0x00, 0x00, 0x00, 0x00, 0x00, 0x00, 0x00, 0x00, 0x00,
  0x01, 0x00, 0x00, 0x00, 0x9d, 0xf0, 0x02, 0x3e, 0x34, 0x00, 0x00, 0x00,
  0x73, 0x65, 0x71, 0x75, 0x65, 0x6e, 0x74, 0x69, 0x61, 0x6c, 0x5f, 0x31,
  0x2f, 0x64, 0x65, 0x6e, 0x73, 0x65, 0x5f, 0x31, 0x2f, 0x4d, 0x61, 0x74,
  0x4d, 0x75, 0x6c, 0x3b, 0x73, 0x65, 0x71, 0x75, 0x65, 0x6e, 0x74, 0x69,
  0x61, 0x6c, 0x5f, 0x31, 0x2f, 0x64, 0x65, 0x6e, 0x73, 0x65, 0x5f, 0x31,
  0x2f, 0x41, 0x64, 0x64, 0x00, 0x00, 0x00, 0x00, 0x02, 0x00, 0x00, 0x00,
  0x01, 0x00, 0x00, 0x00, 0x01, 0x00, 0x00, 0x00, 0x4a, 0xf3, 0xff, 0xff,
  0x00, 0x00, 0x00, 0x01, 0x18, 0x00, 0x00, 0x00, 0x20, 0x00, 0x00, 0x00,
  0x40, 0x00, 0x00, 0x00, 0x10, 0x00, 0x00, 0x00, 0x00, 0x00, 0x00, 0x09,
  0x68, 0x00, 0x00, 0x00, 0x02, 0x00, 0x00, 0x00, 0xff, 0xff, 0xff, 0xff,
  0x20, 0x00, 0x00, 0x00, 0x2c, 0xf3, 0xff, 0xff, 0x08, 0x00, 0x00, 0x00,
  0x14, 0x00, 0x00, 0x00, 0x01, 0x00, 0x00, 0x00, 0x80, 0xff, 0xff, 0xff,
  0xff, 0xff, 0xff, 0xff, 0x00, 0x00, 0x00, 0x00, 0x01, 0x00, 0x00, 0x00,
  0xae, 0x7b, 0x10, 0x3d, 0x2c, 0x00, 0x00, 0x00, 0x73, 0x65, 0x71, 0x75,
  0x65, 0x6e, 0x74, 0x69, 0x61, 0x6c, 0x5f, 0x31, 0x2f, 0x67, 0x6c, 0x6f,
  0x62, 0x61, 0x6c, 0x5f, 0x61, 0x76, 0x65, 0x72, 0x61, 0x67, 0x65, 0x5f,
  0x70, 0x6f, 0x6f, 0x6c, 0x69, 0x6e, 0x67, 0x32, 0x64, 0x5f, 0x31, 0x2f,
  0x4d, 0x65, 0x61, 0x6e, 0x00, 0x00, 0x00, 0x00, 0x02, 0x00, 0x00, 0x00,
  0x01, 0x00, 0x00, 0x00, 0x20, 0x00, 0x00, 0x00, 0xda, 0xf3, 0xff, 0xff,
  0x00, 0x00, 0x00, 0x01, 0x18, 0x00, 0x00, 0x00, 0x28, 0x00, 0x00, 0x00,
  0x44, 0x00, 0x00, 0x00, 0x0f, 0x00, 0x00, 0x00, 0x00, 0x00, 0x00, 0x09,
  0xa0, 0x00, 0x00, 0x00, 0x04, 0x00, 0x00, 0x00, 0xff, 0xff, 0xff, 0xff,
  0x02, 0x00, 0x00, 0x00, 0x04, 0x00, 0x00, 0x00, 0x20, 0x00, 0x00, 0x00,
  0xc4, 0xf3, 0xff, 0xff, 0x08, 0x00, 0x00, 0x00, 0x10, 0x00, 0x00, 0x00,
  0x01, 0x00, 0x00, 0x00, 0x80, 0xff, 0xff, 0xff, 0xff, 0xff, 0xff, 0xff,
  0x01, 0x00, 0x00, 0x00, 0xd9, 0x36, 0x6d, 0x3d, 0x61, 0x00, 0x00, 0x00,
  0x73, 0x65, 0x71, 0x75, 0x65, 0x6e, 0x74, 0x69, 0x61, 0x6c, 0x5f, 0x31,
  0x2f, 0x63, 0x6f, 0x6e, 0x76, 0x32, 0x64, 0x5f, 0x32, 0x5f, 0x31, 0x2f,
  0x52, 0x65, 0x6c, 0x75, 0x3b, 0x73, 0x65, 0x71, 0x75, 0x65, 0x6e, 0x74,
  0x69, 0x61, 0x6c, 0x5f, 0x31, 0x2f, 0x63, 0x6f, 0x6e, 0x76, 0x32, 0x64,
  0x5f, 0x32, 0x5f, 0x31, 0x2f, 0x42, 0x69, 0x61, 0x73, 0x41, 0x64, 0x64,
  0x3b, 0x73, 0x65, 0x71, 0x75, 0x65, 0x6e, 0x74, 0x69, 0x61, 0x6c, 0x5f,
  0x31, 0x2f, 0x63, 0x6f, 0x6e, 0x76, 0x32, 0x64, 0x5f, 0x32, 0x5f, 0x31,
  0x2f, 0x63, 0x6f, 0x6e, 0x76, 0x6f, 0x6c, 0x75, 0x74, 0x69, 0x6f, 0x6e,
  0x3b, 0x00, 0x00, 0x00, 0x04, 0x00, 0x00, 0x00, 0x01, 0x00, 0x00, 0x00,
  0x02, 0x00, 0x00, 0x00, 0x04, 0x00, 0x00, 0x00, 0x20, 0x00, 0x00, 0x00,
  0xaa, 0xf4, 0xff, 0xff, 0x00, 0x00, 0x00, 0x01, 0x18, 0x00, 0x00, 0x00,
  0x28, 0x00, 0x00, 0x00, 0x44, 0x00, 0x00, 0x00, 0x0e, 0x00, 0x00, 0x00,
  0x00, 0x00, 0x00, 0x09, 0x68, 0x00, 0x00, 0x00, 0x04, 0x00, 0x00, 0x00,
  0xff, 0xff, 0xff, 0xff, 0x04, 0x00, 0x00, 0x00, 0x06, 0x00, 0x00, 0x00,
  0x10, 0x00, 0x00, 0x00, 0x94, 0xf4, 0xff, 0xff, 0x08, 0x00, 0x00, 0x00,
  0x10, 0x00, 0x00, 0x00, 0x01, 0x00, 0x00, 0x00, 0x80, 0xff, 0xff, 0xff,
  0xff, 0xff, 0xff, 0xff, 0x01, 0x00, 0x00, 0x00, 0x9c, 0x9e, 0x00, 0x3c,
  0x28, 0x00, 0x00, 0x00, 0x73, 0x65, 0x71, 0x75, 0x65, 0x6e, 0x74, 0x69,
  0x61, 0x6c, 0x5f, 0x31, 0x2f, 0x6d, 0x61, 0x78, 0x5f, 0x70, 0x6f, 0x6f,
  0x6c, 0x69, 0x6e, 0x67, 0x32, 0x64, 0x5f, 0x31, 0x5f, 0x32, 0x2f, 0x4d,
  0x61, 0x78, 0x50, 0x6f, 0x6f, 0x6c, 0x32, 0x64, 0x00, 0x00, 0x00, 0x00,
  0x04, 0x00, 0x00, 0x00, 0x01, 0x00, 0x00, 0x00, 0x04, 0x00, 0x00, 0x00,
  0x06, 0x00, 0x00, 0x00, 0x10, 0x00, 0x00, 0x00, 0x42, 0xf5, 0xff, 0xff,
  0x00, 0x00, 0x00, 0x01, 0x18, 0x00, 0x00, 0x00, 0x28, 0x00, 0x00, 0x00,
  0x44, 0x00, 0x00, 0x00, 0x0d, 0x00, 0x00, 0x00, 0x00, 0x00, 0x00, 0x09,
  0xc0, 0x00, 0x00, 0x00, 0x04, 0x00, 0x00, 0x00, 0xff, 0xff, 0xff, 0xff,
  0x09, 0x00, 0x00, 0x00, 0x0d, 0x00, 0x00, 0x00, 0x10, 0x00, 0x00, 0x00,
  0x2c, 0xf5, 0xff, 0xff, 0x08, 0x00, 0x00, 0x00, 0x10, 0x00, 0x00, 0x00,
  0x01, 0x00, 0x00, 0x00, 0x80, 0xff, 0xff, 0xff, 0xff, 0xff, 0xff, 0xff,
  0x01, 0x00, 0x00, 0x00, 0x9c, 0x9e, 0x00, 0x3c, 0x80, 0x00, 0x00, 0x00,
  0x73, 0x65, 0x71, 0x75, 0x65, 0x6e, 0x74, 0x69, 0x61, 0x6c, 0x5f, 0x31,
  0x2f, 0x63, 0x6f, 0x6e, 0x76, 0x32, 0x64, 0x5f, 0x31, 0x5f, 0x32, 0x2f,
  0x52, 0x65, 0x6c, 0x75, 0x3b, 0x73, 0x65, 0x71, 0x75, 0x65, 0x6e, 0x74,
  0x69, 0x61, 0x6c, 0x5f, 0x31, 0x2f, 0x63, 0x6f, 0x6e, 0x76, 0x32, 0x64,
  0x5f, 0x31, 0x5f, 0x32, 0x2f, 0x42, 0x69, 0x61, 0x73, 0x41, 0x64, 0x64,
  0x3b, 0x73, 0x65, 0x71, 0x75, 0x65, 0x6e, 0x74, 0x69, 0x61, 0x6c, 0x5f,
  0x31, 0x2f, 0x63, 0x6f, 0x6e, 0x76, 0x32, 0x64, 0x5f, 0x31, 0x5f, 0x32,
  0x2f, 0x63, 0x6f, 0x6e, 0x76, 0x6f, 0x6c, 0x75, 0x74, 0x69, 0x6f, 0x6e,
  0x3b, 0x73, 0x65, 0x71, 0x75, 0x65, 0x6e, 0x74, 0x69, 0x61, 0x6c, 0x5f,
  0x31, 0x2f, 0x63, 0x6f, 0x6e, 0x76, 0x32, 0x64, 0x5f, 0x31, 0x5f, 0x32,
  0x2f, 0x53, 0x71, 0x75, 0x65, 0x65, 0x7a, 0x65, 0x00, 0x00, 0x00, 0x00,
  0x04, 0x00, 0x00, 0x00, 0x01, 0x00, 0x00, 0x00, 0x09, 0x00, 0x00, 0x00,
  0x0d, 0x00, 0x00, 0x00, 0x10, 0x00, 0x00, 0x00, 0x32, 0xf6, 0xff, 0xff,
  0x00, 0x00, 0x00, 0x01, 0x18, 0x00, 0x00, 0x00, 0x28, 0x00, 0x00, 0x00,
  0x48, 0x00, 0x00, 0x00, 0x0c, 0x00, 0x00, 0x00, 0x00, 0x00, 0x00, 0x09,
  0x68, 0x00, 0x00, 0x00, 0x04, 0x00, 0x00, 0x00, 0xff, 0xff, 0xff, 0xff,
  0x0b, 0x00, 0x00, 0x00, 0x0f, 0x00, 0x00, 0x00, 0x08, 0x00, 0x00, 0x00,
  0x1c, 0xf6, 0xff, 0xff, 0x08, 0x00, 0x00, 0x00, 0x14, 0x00, 0x00, 0x00,
  0x01, 0x00, 0x00, 0x00, 0x80, 0xff, 0xff, 0xff, 0xff, 0xff, 0xff, 0xff,
  0x00, 0x00, 0x00, 0x00, 0x01, 0x00, 0x00, 0x00, 0x4f, 0xee, 0x2c, 0x3b,
  0x26, 0x00, 0x00, 0x00, 0x73, 0x65, 0x71, 0x75, 0x65, 0x6e, 0x74, 0x69,
  0x61, 0x6c, 0x5f, 0x31, 0x2f, 0x6d, 0x61, 0x78, 0x5f, 0x70, 0x6f, 0x6f,
  0x6c, 0x69, 0x6e, 0x67, 0x32, 0x64, 0x5f, 0x31, 0x2f, 0x4d, 0x61, 0x78,
  0x50, 0x6f, 0x6f, 0x6c, 0x32, 0x64, 0x00, 0x00, 0x04, 0x00, 0x00, 0x00,
  0x01, 0x00, 0x00, 0x00, 0x0b, 0x00, 0x00, 0x00, 0x0f, 0x00, 0x00, 0x00,
  0x08, 0x00, 0x00, 0x00, 0xca, 0xf6, 0xff, 0xff, 0x00, 0x00, 0x00, 0x01,
  0x18, 0x00, 0x00, 0x00, 0x28, 0x00, 0x00, 0x00, 0x48, 0x00, 0x00, 0x00,
  0x0b, 0x00, 0x00, 0x00, 0x00, 0x00, 0x00, 0x09, 0xa0, 0x00, 0x00, 0x00,
  0x04, 0x00, 0x00, 0x00, 0xff, 0xff, 0xff, 0xff, 0x16, 0x00, 0x00, 0x00,
  0x1e, 0x00, 0x00, 0x00, 0x08, 0x00, 0x00, 0x00, 0xb4, 0xf6, 0xff, 0xff,
  0x08, 0x00, 0x00, 0x00, 0x14, 0x00, 0x00, 0x00, 0x01, 0x00, 0x00, 0x00,
  0x80, 0xff, 0xff, 0xff, 0xff, 0xff, 0xff, 0xff, 0x00, 0x00, 0x00, 0x00,
  0x01, 0x00, 0x00, 0x00, 0x4f, 0xee, 0x2c, 0x3b, 0x5c, 0x00, 0x00, 0x00,
  0x73, 0x65, 0x71, 0x75, 0x65, 0x6e, 0x74, 0x69, 0x61, 0x6c, 0x5f, 0x31,
  0x2f, 0x63, 0x6f, 0x6e, 0x76, 0x32, 0x64, 0x5f, 0x31, 0x2f, 0x52, 0x65,
  0x6c, 0x75, 0x3b, 0x73, 0x65, 0x71, 0x75, 0x65, 0x6e, 0x74, 0x69, 0x61,
  0x6c, 0x5f, 0x31, 0x2f, 0x63, 0x6f, 0x6e, 0x76, 0x32, 0x64, 0x5f, 0x31,
  0x2f, 0x42, 0x69, 0x61, 0x73, 0x41, 0x64, 0x64, 0x3b, 0x73, 0x65, 0x71,
  0x75, 0x65, 0x6e, 0x74, 0x69, 0x61, 0x6c, 0x5f, 0x31, 0x2f, 0x63, 0x6f,
  0x6e, 0x76, 0x32, 0x64, 0x5f, 0x31, 0x2f, 0x63, 0x6f, 0x6e, 0x76, 0x6f,
  0x6c, 0x75, 0x74, 0x69, 0x6f, 0x6e, 0x3b, 0x31, 0x00, 0x00, 0x00, 0x00,
  0x04, 0x00, 0x00, 0x00, 0x01, 0x00, 0x00, 0x00, 0x16, 0x00, 0x00, 0x00,
  0x1e, 0x00, 0x00, 0x00, 0x08, 0x00, 0x00, 0x00, 0xf2, 0xf7, 0xff, 0xff,
  0x00, 0x00, 0x00, 0x01, 0x14, 0x00, 0x00, 0x00, 0x88, 0x00, 0x00, 0x00,
  0x0a, 0x00, 0x00, 0x00, 0x00, 0x00, 0x00, 0x09, 0x94, 0x00, 0x00, 0x00,
  0x6c, 0xf7, 0xff, 0xff, 0x08, 0x00, 0x00, 0x00, 0x4c, 0x00, 0x00, 0x00,
  0x08, 0x00, 0x00, 0x00, 0x00, 0x00, 0x00, 0x00, 0x00, 0x00, 0x00, 0x00,
  0x00, 0x00, 0x00, 0x00, 0x00, 0x00, 0x00, 0x00, 0x00, 0x00, 0x00, 0x00,
  0x00, 0x00, 0x00, 0x00, 0x00, 0x00, 0x00, 0x00, 0x00, 0x00, 0x00, 0x00,
  0x00, 0x00, 0x00, 0x00, 0x00, 0x00, 0x00, 0x00, 0x00, 0x00, 0x00, 0x00,
  0x00, 0x00, 0x00, 0x00, 0x00, 0x00, 0x00, 0x00, 0x00, 0x00, 0x00, 0x00,
  0x00, 0x00, 0x00, 0x00, 0x00, 0x00, 0x00, 0x00, 0x00, 0x00, 0x00, 0x00,
  0x08, 0x00, 0x00, 0x00, 0x38, 0x31, 0x30, 0x3b, 0xfe, 0x63, 0x2e, 0x3b,
  0x17, 0x3a, 0x19, 0x3b, 0xe0, 0x8d, 0x11, 0x3b, 0xb0, 0xaf, 0x1a, 0x3b,
  0x4e, 0xf8, 0x05, 0x3b, 0x1c, 0xc1, 0xd3, 0x3a, 0xa1, 0x8f, 0x12, 0x3b,
  0x12, 0x00, 0x00, 0x00, 0x74, 0x66, 0x6c, 0x2e, 0x70, 0x73, 0x65, 0x75,
  0x64, 0x6f, 0x5f, 0x71, 0x63, 0x6f, 0x6e, 0x73, 0x74, 0x37, 0x00, 0x00,
  0x04, 0x00, 0x00, 0x00, 0x08, 0x00, 0x00, 0x00, 0x03, 0x00, 0x00, 0x00,
  0x03, 0x00, 0x00, 0x00, 0x01, 0x00, 0x00, 0x00, 0xb2, 0xf8, 0xff, 0xff,
  0x00, 0x00, 0x00, 0x01, 0x14, 0x00, 0x00, 0x00, 0x84, 0x00, 0x00, 0x00,
  0x09, 0x00, 0x00, 0x00, 0x00, 0x00, 0x00, 0x02, 0x90, 0x00, 0x00, 0x00,
  0x2c, 0xf8, 0xff, 0xff, 0x08, 0x00, 0x00, 0x00, 0x48, 0x00, 0x00, 0x00,
  0x08, 0x00, 0x00, 0x00, 0x00, 0x00, 0x00, 0x00, 0x00, 0x00, 0x00, 0x00,
  0x00, 0x00, 0x00, 0x00, 0x00, 0x00, 0x00, 0x00, 0x00, 0x00, 0x00, 0x00,
  0x00, 0x00, 0x00, 0x00, 0x00, 0x00, 0x00, 0x00, 0x00, 0x00, 0x00, 0x00,
  0x00, 0x00, 0x00, 0x00, 0x00, 0x00, 0x00, 0x00, 0x00, 0x00, 0x00, 0x00,
  0x00, 0x00, 0x00, 0x00, 0x00, 0x00, 0x00, 0x00, 0x00, 0x00, 0x00, 0x00,
  0x00, 0x00, 0x00, 0x00, 0x00, 0x00, 0x00, 0x00, 0x08, 0x00, 0x00, 0x00,
  0x60, 0xbb, 0x0a, 0x37, 0x35, 0x50, 0x09, 0x37, 0x6b, 0x4c, 0xf1, 0x36,
  0x37, 0x37, 0xe5, 0x36, 0xc1, 0x98, 0xf3, 0x36, 0x19, 0xf9, 0xd2, 0x36,
  0xae, 0xbb, 0xa6, 0x36, 0x1f, 0xcd, 0xe6, 0x36, 0x12, 0x00, 0x00, 0x00,
  0x74, 0x66, 0x6c, 0x2e, 0x70, 0x73, 0x65, 0x75, 0x64, 0x6f, 0x5f, 0x71,
  0x63, 0x6f, 0x6e, 0x73, 0x74, 0x36, 0x00, 0x00, 0x01, 0x00, 0x00, 0x00,
  0x08, 0x00, 0x00, 0x00, 0x62, 0xf9, 0xff, 0xff, 0x00, 0x00, 0x00, 0x01,
  0x14, 0x00, 0x00, 0x00, 0xe8, 0x00, 0x00, 0x00, 0x08, 0x00, 0x00, 0x00,
  0x00, 0x00, 0x00, 0x09, 0xf4, 0x00, 0x00, 0x00, 0xdc, 0xf8, 0xff, 0xff,
  0x08, 0x00, 0x00, 0x00, 0x8c, 0x00, 0x00, 0x00, 0x10, 0x00, 0x00, 0x00,
  0x00, 0x00, 0x00, 0x00, 0x00, 0x00, 0x00, 0x00, 0x00, 0x00, 0x00, 0x00,
  0x00, 0x00, 0x00, 0x00, 0x00, 0x00, 0x00, 0x00, 0x00, 0x00, 0x00, 0x00,
  0x00, 0x00, 0x00, 0x00, 0x00, 0x00, 0x00, 0x00, 0x00, 0x00, 0x00, 0x00,
  0x00, 0x00, 0x00, 0x00, 0x00, 0x00, 0x00, 0x00, 0x00, 0x00, 0x00, 0x00,
  0x00, 0x00, 0x00, 0x00, 0x00, 0x00, 0x00, 0x00, 0x00, 0x00, 0x00, 0x00,
  0x00, 0x00, 0x00, 0x00, 0x00, 0x00, 0x00, 0x00, 0x00, 0x00, 0x00, 0x00,
  0x00, 0x00, 0x00, 0x00, 0x00, 0x00, 0x00, 0x00, 0x00, 0x00, 0x00, 0x00,
  0x00, 0x00, 0x00, 0x00, 0x00, 0x00, 0x00, 0x00, 0x00, 0x00, 0x00, 0x00,
  0x00, 0x00, 0x00, 0x00, 0x00, 0x00, 0x00, 0x00, 0x00, 0x00, 0x00, 0x00,
  0x00, 0x00, 0x00, 0x00, 0x00, 0x00, 0x00, 0x00, 0x00, 0x00, 0x00, 0x00,
  0x00, 0x00, 0x00, 0x00, 0x00, 0x00, 0x00, 0x00, 0x00, 0x00, 0x00, 0x00,
  0x10, 0x00, 0x00, 0x00, 0xd1, 0x42, 0x2b, 0x3b, 0x1f, 0xc8, 0x32, 0x3b,
  0xe2, 0x75, 0x15, 0x3b, 0x0b, 0x60, 0x36, 0x3b, 0x59, 0x4b, 0x39, 0x3b,
  0xfe, 0xff, 0x19, 0x3b, 0x4f, 0xc6, 0x3d, 0x3b, 0xab, 0x66, 0x29, 0x3b,
  0x6a, 0xaf, 0x38, 0x3b, 0xe5, 0xf0, 0x33, 0x3b, 0x55, 0x53, 0x06, 0x3b,
  0xdc, 0x72, 0x1d, 0x3b, 0x55, 0x09, 0x2f, 0x3b, 0x2d, 0x31, 0x06, 0x3b,
  0x3c, 0x86, 0x41, 0x3b, 0x30, 0x31, 0x42, 0x3b, 0x12, 0x00, 0x00, 0x00,
  0x74, 0x66, 0x6c, 0x2e, 0x70, 0x73, 0x65, 0x75, 0x64, 0x6f, 0x5f, 0x71,
  0x63, 0x6f, 0x6e, 0x73, 0x74, 0x35, 0x00, 0x00, 0x04, 0x00, 0x00, 0x00,
  0x10, 0x00, 0x00, 0x00, 0x03, 0x00, 0x00, 0x00, 0x03, 0x00, 0x00, 0x00,
  0x08, 0x00, 0x00, 0x00, 0x82, 0xfa, 0xff, 0xff, 0x00, 0x00, 0x00, 0x01,
  0x14, 0x00, 0x00, 0x00, 0xe4, 0x00, 0x00, 0x00, 0x07, 0x00, 0x00, 0x00,
  0x00, 0x00, 0x00, 0x02, 0xf0, 0x00, 0x00, 0x00, 0xfc, 0xf9, 0xff, 0xff,
  0x08, 0x00, 0x00, 0x00, 0x88, 0x00, 0x00, 0x00, 0x10, 0x00, 0x00, 0x00,
  0x00, 0x00, 0x00, 0x00, 0x00, 0x00, 0x00, 0x00, 0x00, 0x00, 0x00, 0x00,
  0x00, 0x00, 0x00, 0x00, 0x00, 0x00, 0x00, 0x00, 0x00, 0x00, 0x00, 0x00,
  0x00, 0x00, 0x00, 0x00, 0x00, 0x00, 0x00, 0x00, 0x00, 0x00, 0x00, 0x00,
  0x00, 0x00, 0x00, 0x00, 0x00, 0x00, 0x00, 0x00, 0x00, 0x00, 0x00, 0x00,
  0x00, 0x00, 0x00, 0x00, 0x00, 0x00, 0x00, 0x00, 0x00, 0x00, 0x00, 0x00,
  0x00, 0x00, 0x00, 0x00, 0x00, 0x00, 0x00, 0x00, 0x00, 0x00, 0x00, 0x00,
  0x00, 0x00, 0x00, 0x00, 0x00, 0x00, 0x00, 0x00, 0x00, 0x00, 0x00, 0x00,
  0x00, 0x00, 0x00, 0x00, 0x00, 0x00, 0x00, 0x00, 0x00, 0x00, 0x00, 0x00,
  0x00, 0x00, 0x00, 0x00, 0x00, 0x00, 0x00, 0x00, 0x00, 0x00, 0x00, 0x00,
  0x00, 0x00, 0x00, 0x00, 0x00, 0x00, 0x00, 0x00, 0x00, 0x00, 0x00, 0x00,
  0x00, 0x00, 0x00, 0x00, 0x00, 0x00, 0x00, 0x00, 0x10, 0x00, 0x00, 0x00,
  0xa3, 0x60, 0xe7, 0x36, 0xc4, 0x89, 0xf1, 0x36, 0xab, 0xec, 0xc9, 0x36,
  0x9a, 0x64, 0xf6, 0x36, 0x3a, 0x56, 0xfa, 0x36, 0xb4, 0x0e, 0xd0, 0x36,
  0xe6, 0x31, 0x00, 0x37, 0x59, 0xdd, 0xe4, 0x36, 0x8f, 0x83, 0xf9, 0x36,
  0xb7, 0x1a, 0xf3, 0x36, 0x10, 0x7a, 0xb5, 0x36, 0x7a, 0xb7, 0xd4, 0x36,
  0x6c, 0x7a, 0xec, 0x36, 0xeb, 0x4b, 0xb5, 0x36, 0x57, 0xba, 0x02, 0x37,
  0xd2, 0x2d, 0x03, 0x37, 0x12, 0x00, 0x00, 0x00, 0x74, 0x66, 0x6c, 0x2e,
  0x70, 0x73, 0x65, 0x75, 0x64, 0x6f, 0x5f, 0x71, 0x63, 0x6f, 0x6e, 0x73,
  0x74, 0x34, 0x00, 0x00, 0x01, 0x00, 0x00, 0x00, 0x10, 0x00, 0x00, 0x00,
  0x92, 0xfb, 0xff, 0xff, 0x00, 0x00, 0x00, 0x01, 0x14, 0x00, 0x00, 0x00,
  0xa8, 0x01, 0x00, 0x00, 0x06, 0x00, 0x00, 0x00, 0x00, 0x00, 0x00, 0x09,
  0xb4, 0x01, 0x00, 0x00, 0x0c, 0xfb, 0xff, 0xff, 0x08, 0x00, 0x00, 0x00,
  0x0c, 0x01, 0x00, 0x00, 0x20, 0x00, 0x00, 0x00, 0x00, 0x00, 0x00, 0x00,
  0x00, 0x00, 0x00, 0x00, 0x00, 0x00, 0x00, 0x00, 0x00, 0x00, 0x00, 0x00,
  0x00, 0x00, 0x00, 0x00, 0x00, 0x00, 0x00, 0x00, 0x00, 0x00, 0x00, 0x00,
  0x00, 0x00, 0x00, 0x00, 0x00, 0x00, 0x00, 0x00, 0x00, 0x00, 0x00, 0x00,
  0x00, 0x00, 0x00, 0x00, 0x00, 0x00, 0x00, 0x00, 0x00, 0x00, 0x00, 0x00,
  0x00, 0x00, 0x00, 0x00, 0x00, 0x00, 0x00, 0x00, 0x00, 0x00, 0x00, 0x00,
  0x00, 0x00, 0x00, 0x00, 0x00, 0x00, 0x00, 0x00, 0x00, 0x00, 0x00, 0x00,
  0x00, 0x00, 0x00, 0x00, 0x00, 0x00, 0x00, 0x00, 0x00, 0x00, 0x00, 0x00,
  0x00, 0x00, 0x00, 0x00, 0x00, 0x00, 0x00, 0x00, 0x00, 0x00, 0x00, 0x00,
  0x00, 0x00, 0x00, 0x00, 0x00, 0x00, 0x00, 0x00, 0x00, 0x00, 0x00, 0x00,
  0x00, 0x00, 0x00, 0x00, 0x00, 0x00, 0x00, 0x00, 0x00, 0x00, 0x00, 0x00,
  0x00, 0x00, 0x00, 0x00, 0x00, 0x00, 0x00, 0x00, 0x00, 0x00, 0x00, 0x00,
  0x00, 0x00, 0x00, 0x00, 0x00, 0x00, 0x00, 0x00, 0x00, 0x00, 0x00, 0x00,
  0x00, 0x00, 0x00, 0x00, 0x00, 0x00, 0x00, 0x00, 0x00, 0x00, 0x00, 0x00,
  0x00, 0x00, 0x00, 0x00, 0x00, 0x00, 0x00, 0x00, 0x00, 0x00, 0x00, 0x00,
  0x00, 0x00, 0x00, 0x00, 0x00, 0x00, 0x00, 0x00, 0x00, 0x00, 0x00, 0x00,
  0x00, 0x00, 0x00, 0x00, 0x00, 0x00, 0x00, 0x00, 0x00, 0x00, 0x00, 0x00,
  0x00, 0x00, 0x00, 0x00, 0x00, 0x00, 0x00, 0x00, 0x00, 0x00, 0x00, 0x00,
  0x00, 0x00, 0x00, 0x00, 0x00, 0x00, 0x00, 0x00, 0x00, 0x00, 0x00, 0x00,
  0x00, 0x00, 0x00, 0x00, 0x00, 0x00, 0x00, 0x00, 0x00, 0x00, 0x00, 0x00,
  0x00, 0x00, 0x00, 0x00, 0x00, 0x00, 0x00, 0x00, 0x00, 0x00, 0x00, 0x00,
  0x00, 0x00, 0x00, 0x00, 0x00, 0x00, 0x00, 0x00, 0x00, 0x00, 0x00, 0x00,
  0x00, 0x00, 0x00, 0x00, 0x20, 0x00, 0x00, 0x00, 0x29, 0xd7, 0xa1, 0x3a,
  0xdb, 0x95, 0xef, 0x3a, 0xd5, 0x59, 0x0c, 0x3b, 0xeb, 0xe7, 0x71, 0x3a,
  0x54, 0x05, 0xe3, 0x3a, 0x5d, 0xd3, 0xfd, 0x3a, 0x55, 0xd0, 0x04, 0x3b,
  0xfd, 0xa6, 0x79, 0x3a, 0x1c, 0xbe, 0x00, 0x3b, 0x64, 0xa2, 0x9a, 0x3a,
  0xdc, 0x09, 0x14, 0x3b, 0xb4, 0x94, 0x86, 0x3a, 0xcc, 0x4b, 0x8b, 0x3a,
  0xb3, 0x77, 0x88, 0x3a, 0xe6, 0xe1, 0x84, 0x3a, 0x33, 0x64, 0x0f, 0x3b,
  0x02, 0x27, 0xa8, 0x3a, 0xb2, 0xbc, 0x88, 0x3a, 0x26, 0xed, 0x82, 0x3a,
  0x37, 0xa0, 0x95, 0x3a, 0x1b, 0x8a, 0x02, 0x3b, 0x58, 0xad, 0x17, 0x3b,
  0x91, 0x34, 0x22, 0x3b, 0x5d, 0x2f, 0x84, 0x3a, 0x96, 0x5f, 0x0f, 0x3b,
  0x3c, 0xae, 0xbe, 0x3a, 0x50, 0x65, 0x16, 0x3b, 0x6e, 0x48, 0x06, 0x3b,
  0x04, 0x6a, 0x14, 0x3b, 0x96, 0xf8, 0x82, 0x3a, 0x9c, 0xc0, 0x8e, 0x3a,
  0x94, 0x94, 0x09, 0x3b, 0x12, 0x00, 0x00, 0x00, 0x74, 0x66, 0x6c, 0x2e,
  0x70, 0x73, 0x65, 0x75, 0x64, 0x6f, 0x5f, 0x71, 0x63, 0x6f, 0x6e, 0x73,
  0x74, 0x33, 0x00, 0x00, 0x04, 0x00, 0x00, 0x00, 0x20, 0x00, 0x00, 0x00,
  0x03, 0x00, 0x00, 0x00, 0x03, 0x00, 0x00, 0x00, 0x10, 0x00, 0x00, 0x00,
  0x72, 0xfd, 0xff, 0xff, 0x00, 0x00, 0x00, 0x01, 0x14, 0x00, 0x00, 0x00,
  0xa4, 0x01, 0x00, 0x00, 0x05, 0x00, 0x00, 0x00, 0x00, 0x00, 0x00, 0x02,
  0xb0, 0x01, 0x00, 0x00, 0xec, 0xfc, 0xff, 0xff, 0x08, 0x00, 0x00, 0x00,
  0x08, 0x01, 0x00, 0x00, 0x20, 0x00, 0x00, 0x00, 0x00, 0x00, 0x00, 0x00,
  0x00, 0x00, 0x00, 0x00, 0x00, 0x00, 0x00, 0x00, 0x00, 0x00, 0x00, 0x00,
  0x00, 0x00, 0x00, 0x00, 0x00, 0x00, 0x00, 0x00, 0x00, 0x00, 0x00, 0x00,
  0x00, 0x00, 0x00, 0x00, 0x00, 0x00, 0x00, 0x00, 0x00, 0x00, 0x00, 0x00,
  0x00, 0x00, 0x00, 0x00, 0x00, 0x00, 0x00, 0x00, 0x00, 0x00, 0x00, 0x00,
  0x00, 0x00, 0x00, 0x00, 0x00, 0x00, 0x00, 0x00, 0x00, 0x00, 0x00, 0x00,
  0x00, 0x00, 0x00, 0x00, 0x00, 0x00, 0x00, 0x00, 0x00, 0x00, 0x00, 0x00,
  0x00, 0x00, 0x00, 0x00, 0x00, 0x00, 0x00, 0x00, 0x00, 0x00, 0x00, 0x00,
  0x00, 0x00, 0x00, 0x00, 0x00, 0x00, 0x00, 0x00, 0x00, 0x00, 0x00, 0x00,
  0x00, 0x00, 0x00, 0x00, 0x00, 0x00, 0x00, 0x00, 0x00, 0x00, 0x00, 0x00,
  0x00, 0x00, 0x00, 0x00, 0x00, 0x00, 0x00, 0x00, 0x00, 0x00, 0x00, 0x00,
  0x00, 0x00, 0x00, 0x00, 0x00, 0x00, 0x00, 0x00, 0x00, 0x00, 0x00, 0x00,
  0x00, 0x00, 0x00, 0x00, 0x00, 0x00, 0x00, 0x00, 0x00, 0x00, 0x00, 0x00,
  0x00, 0x00, 0x00, 0x00, 0x00, 0x00, 0x00, 0x00, 0x00, 0x00, 0x00, 0x00,
  0x00, 0x00, 0x00, 0x00, 0x00, 0x00, 0x00, 0x00, 0x00, 0x00, 0x00, 0x00,
  0x00, 0x00, 0x00, 0x00, 0x00, 0x00, 0x00, 0x00, 0x00, 0x00, 0x00, 0x00,
  0x00, 0x00, 0x00, 0x00, 0x00, 0x00, 0x00, 0x00, 0x00, 0x00, 0x00, 0x00,
  0x00, 0x00, 0x00, 0x00, 0x00, 0x00, 0x00, 0x00, 0x00, 0x00, 0x00, 0x00,
  0x00, 0x00, 0x00, 0x00, 0x00, 0x00, 0x00, 0x00, 0x00, 0x00, 0x00, 0x00,
  0x00, 0x00, 0x00, 0x00, 0x00, 0x00, 0x00, 0x00, 0x00, 0x00, 0x00, 0x00,
  0x00, 0x00, 0x00, 0x00, 0x00, 0x00, 0x00, 0x00, 0x00, 0x00, 0x00, 0x00,
  0x00, 0x00, 0x00, 0x00, 0x00, 0x00, 0x00, 0x00, 0x00, 0x00, 0x00, 0x00,
  0x20, 0x00, 0x00, 0x00, 0xb4, 0x9f, 0x22, 0x37, 0xbc, 0xbe, 0x70, 0x37,
  0xbf, 0x07, 0x8d, 0x37, 0xac, 0x13, 0xf3, 0x36, 0xa3, 0x1e, 0x64, 0x37,
  0xe3, 0x0d, 0x7f, 0x37, 0xe8, 0x74, 0x85, 0x37, 0x57, 0xdc, 0xfa, 0x36,
  0xa4, 0x5d, 0x81, 0x37, 0x01, 0x62, 0x1b, 0x37, 0x4d, 0xc1, 0x94, 0x37,
  0x78, 0x3b, 0x07, 0x37, 0x67, 0xf8, 0x0b, 0x37, 0xcd, 0x20, 0x09, 0x37,
  0x8f, 0x86, 0x05, 0x37, 0xe1, 0x15, 0x90, 0x37, 0x5f, 0xf7, 0x28, 0x37,
  0x22, 0x66, 0x09, 0x37, 0x62, 0x8f, 0x03, 0x37, 0x9f, 0x59, 0x16, 0x37,
  0xdd, 0x2b, 0x83, 0x37, 0x4b, 0x69, 0x98, 0x37, 0x90, 0xfd, 0xa2, 0x37,
  0x29, 0xd3, 0x04, 0x37, 0x3f, 0x11, 0x90, 0x37, 0x83, 0x9a, 0x3f, 0x37,
  0xac, 0x1f, 0x97, 0x37, 0xd3, 0xee, 0x86, 0x37, 0xec, 0x21, 0x95, 0x37,
  0xe0, 0x9a, 0x03, 0x37, 0x80, 0x71, 0x0f, 0x37, 0x0f, 0x3f, 0x8a, 0x37,
  0x12, 0x00, 0x00, 0x00, 0x74, 0x66, 0x6c, 0x2e, 0x70, 0x73, 0x65, 0x75,
  0x64, 0x6f, 0x5f, 0x71, 0x63, 0x6f, 0x6e, 0x73, 0x74, 0x32, 0x00, 0x00,
  0x01, 0x00, 0x00, 0x00, 0x20, 0x00, 0x00, 0x00, 0x42, 0xff, 0xff, 0xff,
  0x00, 0x00, 0x00, 0x01, 0x14, 0x00, 0x00, 0x00, 0x30, 0x00, 0x00, 0x00,
  0x04, 0x00, 0x00, 0x00, 0x00, 0x00, 0x00, 0x09, 0x3c, 0x00, 0x00, 0x00,
  0xbc, 0xfe, 0xff, 0xff, 0x08, 0x00, 0x00, 0x00, 0x10, 0x00, 0x00, 0x00,
  0x01, 0x00, 0x00, 0x00, 0x00, 0x00, 0x00, 0x00, 0x00, 0x00, 0x00, 0x00,
  0x01, 0x00, 0x00, 0x00, 0x83, 0xb7, 0xae, 0x3b, 0x12, 0x00, 0x00, 0x00,
  0x74, 0x66, 0x6c, 0x2e, 0x70, 0x73, 0x65, 0x75, 0x64, 0x6f, 0x5f, 0x71,
  0x63, 0x6f, 0x6e, 0x73, 0x74, 0x31, 0x00, 0x00, 0x02, 0x00, 0x00, 0x00,
  0x01, 0x00, 0x00, 0x00, 0x20, 0x00, 0x00, 0x00, 0xa2, 0xff, 0xff, 0xff,
  0x00, 0x00, 0x00, 0x01, 0x14, 0x00, 0x00, 0x00, 0x30, 0x00, 0x00, 0x00,
  0x03, 0x00, 0x00, 0x00, 0x00, 0x00, 0x00, 0x02, 0x3c, 0x00, 0x00, 0x00,
  0x1c, 0xff, 0xff, 0xff, 0x08, 0x00, 0x00, 0x00, 0x10, 0x00, 0x00, 0x00,
  0x01, 0x00, 0x00, 0x00, 0x00, 0x00, 0x00, 0x00, 0x00, 0x00, 0x00, 0x00,
  0x01, 0x00, 0x00, 0x00, 0x45, 0x37, 0x45, 0x39, 0x11, 0x00, 0x00, 0x00,
  0x74, 0x66, 0x6c, 0x2e, 0x70, 0x73, 0x65, 0x75, 0x64, 0x6f, 0x5f, 0x71,
  0x63, 0x6f, 0x6e, 0x73, 0x74, 0x00, 0x00, 0x00, 0x01, 0x00, 0x00, 0x00,
  0x01, 0x00, 0x00, 0x00, 0x00, 0x00, 0x16, 0x00, 0x1c, 0x00, 0x18, 0x00,
  0x17, 0x00, 0x10, 0x00, 0x0c, 0x00, 0x08, 0x00, 0x00, 0x00, 0x00, 0x00,
  0x00, 0x00, 0x07, 0x00, 0x16, 0x00, 0x00, 0x00, 0x00, 0x00, 0x00, 0x01,
  0x18, 0x00, 0x00, 0x00, 0x18, 0x00, 0x00, 0x00, 0x02, 0x00, 0x00, 0x00,
  0x00, 0x00, 0x00, 0x02, 0x20, 0x00, 0x00, 0x00, 0x04, 0x00, 0x04, 0x00,
  0x04, 0x00, 0x00, 0x00, 0x0e, 0x00, 0x00, 0x00, 0x61, 0x72, 0x69, 0x74,
  0x68, 0x2e, 0x63, 0x6f, 0x6e, 0x73, 0x74, 0x61, 0x6e, 0x74, 0x00, 0x00,
  0x01, 0x00, 0x00, 0x00, 0x02, 0x00, 0x00, 0x00, 0x00, 0x00, 0x16, 0x00,
  0x20, 0x00, 0x1c, 0x00, 0x1b, 0x00, 0x14, 0x00, 0x10, 0x00, 0x0c, 0x00,
  0x00, 0x00, 0x00, 0x00, 0x08, 0x00, 0x07, 0x00, 0x16, 0x00, 0x00, 0x00,
  0x00, 0x00, 0x00, 0x01, 0x18, 0x00, 0x00, 0x00, 0x34, 0x00, 0x00, 0x00,
  0x54, 0x00, 0x00, 0x00, 0x01, 0x00, 0x00, 0x00, 0x00, 0x00, 0x00, 0x09,
  0x6c, 0x00, 0x00, 0x00, 0x04, 0x00, 0x00, 0x00, 0xff, 0xff, 0xff, 0xff,
  0x18, 0x00, 0x00, 0x00, 0x20, 0x00, 0x00, 0x00, 0x01, 0x00, 0x00, 0x00,
  0x0c, 0x00, 0x0c, 0x00, 0x00, 0x00, 0x00, 0x00, 0x08, 0x00, 0x04, 0x00,
  0x0c, 0x00, 0x00, 0x00, 0x08, 0x00, 0x00, 0x00, 0x14, 0x00, 0x00, 0x00,
  0x01, 0x00, 0x00, 0x00, 0x80, 0xff, 0xff, 0xff, 0xff, 0xff, 0xff, 0xff,
  0x00, 0x00, 0x00, 0x00, 0x01, 0x00, 0x00, 0x00, 0x5b, 0x92, 0x49, 0x3b,
  0x1d, 0x00, 0x00, 0x00, 0x73, 0x65, 0x72, 0x76, 0x69, 0x6e, 0x67, 0x5f,
  0x64, 0x65, 0x66, 0x61, 0x75, 0x6c, 0x74, 0x5f, 0x69, 0x6e, 0x70, 0x75,
  0x74, 0x5f, 0x6c, 0x61, 0x79, 0x65, 0x72, 0x3a, 0x30, 0x00, 0x00, 0x00,
  0x04, 0x00, 0x00, 0x00, 0x01, 0x00, 0x00, 0x00, 0x18, 0x00, 0x00, 0x00,
  0x20, 0x00, 0x00, 0x00, 0x01, 0x00, 0x00, 0x00, 0x05, 0x00, 0x00, 0x00,
  0x60, 0x00, 0x00, 0x00, 0x40, 0x00, 0x00, 0x00, 0x2c, 0x00, 0x00, 0x00,
  0x18, 0x00, 0x00, 0x00, 0x04, 0x00, 0x00, 0x00, 0xc0, 0xff, 0xff, 0xff,
  0x0e, 0x00, 0x00, 0x00, 0x02, 0x00, 0x00, 0x00, 0x00, 0x00, 0x00, 0x0e,
  0xd0, 0xff, 0xff, 0xff, 0x09, 0x00, 0x00, 0x00, 0x04, 0x00, 0x00, 0x00,
  0x00, 0x00, 0x00, 0x09, 0xe0, 0xff, 0xff, 0xff, 0x28, 0x00, 0x00, 0x00,
  0x02, 0x00, 0x00, 0x00, 0x00, 0x00, 0x00, 0x28, 0xf0, 0xff, 0xff, 0xff,
  0x11, 0x00, 0x00, 0x00, 0x02, 0x00, 0x00, 0x00, 0x00, 0x00, 0x00, 0x11,
  0x0c, 0x00, 0x10, 0x00, 0x0f, 0x00, 0x00, 0x00, 0x08, 0x00, 0x04, 0x00,
  0x0c, 0x00, 0x00, 0x00, 0x03, 0x00, 0x00, 0x00, 0x03, 0x00, 0x00, 0x00,
  0x00, 0x00, 0x00, 0x03
};
unsigned int modelo_int8_tflite_len = 11368;
